{
  "version": "1.0",
  "truncation": null,
  "padding": null,
  "added_tokens": [
    {
      "id": 0,
      "content": "[UNK]",
      "single_word": false,
      "lstrip": false,
      "rstrip": false,
      "normalized": false,
      "special": true
    },
    {
      "id": 1,
      "content": "[BOS]",
      "single_word": false,
      "lstrip": false,
      "rstrip": false,
      "normalized": false,
      "special": true
    },
    {
      "id": 2,
      "content": "[EOS]",
      "single_word": false,
      "lstrip": false,
      "rstrip": false,
      "normalized": false,
      "special": true
    },
    {
      "id": 3,
      "content": "<|endoftext|>",
      "single_word": false,
      "lstrip": false,
      "rstrip": false,
      "normalized": false,
      "special": true
    }
  ],
  "normalizer": null,
  "pre_tokenizer": {
    "type": "ByteLevel",
    "add_prefix_space": true,
    "trim_offsets": true,
    "use_regex": true
  },
  "post_processor": null,
  "decoder": null,
  "model": {
    "type": "BPE",
    "dropout": null,
    "unk_token": "[UNK]",
    "continuing_subword_prefix": null,
    "end_of_word_suffix": null,
    "fuse_unk": false,
    "byte_fallback": false,
    "ignore_merges": false,
    "vocab": {
      "[UNK]": 0,
      "[BOS]": 1,
      "[EOS]": 2,
      "<|endoftext|>": 3,
      "!": 4,
      "\"": 5,
      "#": 6,
      "$": 7,
      "%": 8,
      "&": 9,
      "'": 10,
      "(": 11,
      ")": 12,
      "*": 13,
      "+": 14,
      ",": 15,
      "-": 16,
      ".": 17,
      "/": 18,
      "0": 19,
      "1": 20,
      "2": 21,
      "3": 22,
      "4": 23,
      "5": 24,
      "6": 25,
      "7": 26,
      "8": 27,
      "9": 28,
      ":": 29,
      ";": 30,
      "<": 31,
      "=": 32,
      ">": 33,
      "?": 34,
      "@": 35,
      "A": 36,
      "B": 37,
      "C": 38,
      "D": 39,
      "E": 40,
      "F": 41,
      "G": 42,
      "H": 43,
      "I": 44,
      "J": 45,
      "K": 46,
      "L": 47,
      "M": 48,
      "N": 49,
      "O": 50,
      "P": 51,
      "Q": 52,
      "R": 53,
      "S": 54,
      "T": 55,
      "U": 56,
      "V": 57,
      "W": 58,
      "X": 59,
      "Y": 60,
      "Z": 61,
      "[": 62,
      "\\": 63,
      "]": 64,
      "_": 65,
      "`": 66,
      "a": 67,
      "b": 68,
      "c": 69,
      "d": 70,
      "e": 71,
      "f": 72,
      "g": 73,
      "h": 74,
      "i": 75,
      "j": 76,
      "k": 77,
      "l": 78,
      "m": 79,
      "n": 80,
      "o": 81,
      "p": 82,
      "q": 83,
      "r": 84,
      "s": 85,
      "t": 86,
      "u": 87,
      "v": 88,
      "w": 89,
      "x": 90,
      "y": 91,
      "z": 92,
      "{": 93,
      "|": 94,
      "}": 95,
      "~": 96,
      "¡": 97,
      "¢": 98,
      "£": 99,
      "¤": 100,
      "¥": 101,
      "¦": 102,
      "§": 103,
      "¨": 104,
      "©": 105,
      "ª": 106,
      "«": 107,
      "¬": 108,
      "®": 109,
      "¯": 110,
      "°": 111,
      "±": 112,
      "²": 113,
      "³": 114,
      "´": 115,
      "µ": 116,
      "¶": 117,
      "·": 118,
      "¸": 119,
      "¹": 120,
      "º": 121,
      "»": 122,
      "¼": 123,
      "½": 124,
      "¾": 125,
      "¿": 126,
      "Â": 127,
      "Ã": 128,
      "Ä": 129,
      "Å": 130,
      "É": 131,
      "Ê": 132,
      "Ñ": 133,
      "Ò": 134,
      "á": 135,
      "â": 136,
      "ã": 137,
      "ä": 138,
      "å": 139,
      "æ": 140,
      "ç": 141,
      "è": 142,
      "é": 143,
      "î": 144,
      "ï": 145,
      "ð": 146,
      "Ċ": 147,
      "č": 148,
      "Ġ": 149,
      "Ģ": 150,
      "ģ": 151,
      "Ĥ": 152,
      "ĥ": 153,
      "Ħ": 154,
      "ħ": 155,
      "Ĩ": 156,
      "ĩ": 157,
      "Ī": 158,
      "ī": 159,
      "Ĭ": 160,
      "ĭ": 161,
      "Į": 162,
      "į": 163,
      "İ": 164,
      "ı": 165,
      "Ĳ": 166,
      "ĳ": 167,
      "Ĵ": 168,
      "ĵ": 169,
      "Ķ": 170,
      "ķ": 171,
      "ĸ": 172,
      "ĺ": 173,
      "Ļ": 174,
      "ļ": 175,
      "Ľ": 176,
      "ľ": 177,
      "Ŀ": 178,
      "ŀ": 179,
      "Ł": 180,
      "ł": 181,
      "Ń": 182,
      "he": 183,
      "Ġt": 184,
      "Ġa": 185,
      "Ġs": 186,
      "nd": 187,
      "Ġw": 188,
      "Ġthe": 189,
      "ed": 190,
      "Ġand": 191,
      "Ġto": 192,
      "Ġb": 193,
      "in": 194,
      "Ġh": 195,
      "Ġwa": 196,
      "re": 197,
      "čĊ": 198,
      "ou": 199,
      "Ġf": 200,
      "it": 201,
      "ĠT": 202,
      "Ġl": 203,
      "Ġc": 204,
      "Ġd": 205,
      "er": 206,
      "Ġhe": 207,
      "Ġm": 208,
      "Ġp": 209,
      "Ġwas": 210,
      "om": 211,
      "Ġo": 212,
      "ay": 213,
      "ĠThe": 214,
      "ar": 215,
      "is": 216,
      "ing": 217,
      "il": 218,
      "Ġg": 219,
      "id": 220,
      "ĠS": 221,
      "at": 222,
      "en": 223,
      "Ġn": 224,
      "Ġsa": 225,
      "Ġha": 226,
      "an": 227,
      "im": 228,
      "or": 229,
      "on": 230,
      "Ġit": 231,
      "Ġth": 232,
      "ĠH": 233,
      "ll": 234,
      "Ġ\"": 235,
      "le": 236,
      "Ġher": 237,
      "ot": 238,
      "et": 239,
      "ĠShe": 240,
      "ir": 241,
      "ĠHe": 242,
      "ĠThey": 243,
      "es": 244,
      "end": 245,
      "Ġin": 246,
      "ver": 247,
      "ut": 248,
      "ow": 249,
      "ck": 250,
      "ĠL": 251,
      "Ġu": 252,
      "ld": 253,
      "Ġy": 254,
      "oo": 255,
      "Ġsaid": 256,
      "ig": 257,
      "ily": 258,
      "ex": 259,
      "Ġr": 260,
      "Ġbe": 261,
      "ĠI": 262,
      "am": 263,
      "Ġst": 264,
      "ce": 265,
      "ke": 266,
      "Ġshe": 267,
      "ve": 268,
      "pp": 269,
      "ith": 270,
      "Ġwith": 271,
      "ĠO": 272,
      "ĠOn": 273,
      "Ġon": 274,
      "ĠLily": 275,
      "Ġyou": 276,
      "Ġof": 277,
      "ked": 278,
      "ri": 279,
      "Ġso": 280,
      "ft": 281,
      "nt": 282,
      "Ġhis": 283,
      "Ġpl": 284,
      "ad": 285,
      "ĠB": 286,
      "very": 287,
      "Ġday": 288,
      "Ġthat": 289,
      "Ġup": 290,
      "Ġplay": 291,
      "Ġhad": 292,
      "st": 293,
      "el": 294,
      "Ġthey": 295,
      "ext": 296,
      "Ġmom": 297,
      "ĠM": 298,
      "Ġwe": 299,
      "Ġfor": 300,
      "Ġe": 301,
      "un": 302,
      "ould": 303,
      "'s": 304,
      "my": 305,
      "Ġli": 306,
      "oft": 307,
      "Ġ<": 308,
      "|>": 309,
      "endoft": 310,
      "Ġ<|": 311,
      "endoftext": 312,
      "ch": 313,
      "ent": 314,
      "Ġhapp": 315,
      "Ġwant": 316,
      "itt": 317,
      "Ġsh": 318,
      "out": 319,
      "her": 320,
      "Ġdo": 321,
      "ly": 322,
      "Ġnot": 323,
      "ome": 324,
      "se": 325,
      "Ġvery": 326,
      "ound": 327,
      "all": 328,
      "Ġwh": 329,
      "ime": 330,
      "ittle": 331,
      "Ġk": 332,
      "Ġtime": 333,
      "Ġlittle": 334,
      "ĠčĊ": 335,
      "al": 336,
      "Ġthere": 337,
      "ĠA": 338,
      "ht": 339,
      "Ġre": 340,
      "ĠIt": 341,
      "Ġhappy": 342,
      "Ġsm": 343,
      "Ġbig": 344,
      "Ġis": 345,
      "Ġbut": 346,
      "ack": 347,
      "Ġan": 348,
      "Ġsaw": 349,
      "riend": 350,
      ".\"": 351,
      "Ġfriend": 352,
      "ry": 353,
      "Ġas": 354,
      "ra": 355,
      "Ġne": 356,
      "ide": 357,
      "ĠOne": 358,
      "ake": 359,
      "'t": 360,
      "!\"": 361,
      "ug": 362,
      "ĠTim": 363,
      "Ġloo": 364,
      "ved": 365,
      "Ġwere": 366,
      "ore": 367,
      "ĠOnce": 368,
      "Ġlo": 369,
      "ĠJ": 370,
      "ec": 371,
      "Ġhim": 372,
      "Ġtoo": 373,
      "Ġgo": 374,
      "Ġbo": 375,
      "Ġse": 376,
      "irl": 377,
      "Ġare": 378,
      "Ġj": 379,
      "ard": 380,
      "Ġwanted": 381,
      "ill": 382,
      "Ġgirl": 383,
      "Ġupon": 384,
      "Ġthem": 385,
      "Ġout": 386,
      "ĠTom": 387,
      "Ġat": 388,
      "ur": 389,
      "ind": 390,
      "Ġtheir": 391,
      "fu": 392,
      "Ġsp": 393,
      "ĠBen": 394,
      "way": 395,
      "Ġsmil": 396,
      "Ġdid": 397,
      "Ġcould": 398,
      "hen": 399,
      "Ġhave": 400,
      "ain": 401,
      "art": 402,
      "hed": 403,
      "ter": 404,
      "Ġex": 405,
      "rom": 406,
      "Ġwent": 407,
      "Ġar": 408,
      "ic": 409,
      "Ġcan": 410,
      "ĠW": 411,
      "lp": 412,
      "ful": 413,
      "ood": 414,
      "?\"": 415,
      "hing": 416,
      "Ġfriends": 417,
      "Ġnam": 418,
      "ĠBut": 419,
      "ight": 420,
      "Ġall": 421,
      "Ġhelp": 422,
      "Ġkn": 423,
      "um": 424,
      "one": 425,
      "ark": 426,
      "Ġback": 427,
      "Ġsay": 428,
      "You": 429,
      "Ġfun": 430,
      "Ġcl": 431,
      "are": 432,
      "Ġno": 433,
      "Ġle": 434,
      "op": 435,
      "ĠTimmy": 436,
      "Ġsmiled": 437,
      "Ġsc": 438,
      "Ġnamed": 439,
      "Ġal": 440,
      "oug": 441,
      "Ġloved": 442,
      "side": 443,
      "elt": 444,
      "Ġman": 445,
      "Ġasked": 446,
      "ick": 447,
      "Ġtoy": 448,
      "Ġlike": 449,
      "Ġfe": 450,
      "Ġfelt": 451,
      "Ġlooked": 452,
      "Ġsome": 453,
      "Ġaround": 454,
      "Ġsee": 455,
      "Ġme": 456,
      "ame": 457,
      "omet": 458,
      "Ġro": 459,
      "Ġbr": 460,
      "ure": 461,
      "Ġbir": 462,
      "get": 463,
      "ice": 464,
      "Ġboy": 465,
      "Ġwould": 466,
      "Ġstart": 467,
      "ong": 468,
      "âĢ": 469,
      "ss": 470,
      "Ġbird": 471,
      "Ġsomet": 472,
      "Ġfa": 473,
      "dd": 474,
      "ings": 475,
      "Ġag": 476,
      "Ġwor": 477,
      "Ġwhat": 478,
      "ĠMom": 479,
      "ade": 480,
      "king": 481,
      "Ġmake": 482,
      "ie": 483,
      ",\"": 484,
      "own": 485,
      "Ġtre": 486,
      "Ġran": 487,
      "gether": 488,
      "ĠYou": 489,
      "Ġaway": 490,
      "ag": 491,
      "ared": 492,
      "Ġsays": 493,
      "Ġstarted": 494,
      "oud": 495,
      "Ġmade": 496,
      "Ġcar": 497,
      "Ġsomething": 498,
      "Ġtogether": 499,
      "ited": 500,
      "ther": 501,
      "Ġpark": 502,
      "Ġco": 503,
      "Ġsad": 504,
      "Ġother": 505,
      "Ġnew": 506,
      "ĠE": 507,
      "Ġexc": 508,
      "Ġput": 509,
      "Ġfrom": 510,
      "Ġpr": 511,
      "ell": 512,
      "Ġla": 513,
      "Ġhug": 514,
      "ble": 515,
      "Ġmu": 516,
      "ook": 517,
      "ach": 518,
      "Ġagain": 519,
      "if": 520,
      "Ġhome": 521,
      "Ġwhen": 522,
      "ĠF": 523,
      "Ġgood": 524,
      "hat": 525,
      "ep": 526,
      "Ġwho": 527,
      "est": 528,
      "ried": 529,
      "Ġfl": 530,
      "Ġfound": 531,
      "Ġthen": 532,
      "Ġch": 533,
      "Ġdec": 534,
      "pped": 535,
      "Ġwal": 536,
      "as": 537,
      "ĠD": 538,
      "Ġget": 539,
      "qu": 540,
      "Ġplaying": 541,
      "ought": 542,
      "pl": 543,
      "ally": 544,
      "Ġsw": 545,
      "ĠSu": 546,
      "ous": 547,
      "nn": 548,
      "Ġthings": 549,
      "Ġexcited": 550,
      "Ġliked": 551,
      "Ġgot": 552,
      "uck": 553,
      "ro": 554,
      "ĠSam": 555,
      "ided": 556,
      "Ġdecided": 557,
      "Ġbl": 558,
      "ave": 559,
      "Ġv": 560,
      "Ġcame": 561,
      "Ġevery": 562,
      "ara": 563,
      "Ġyour": 564,
      "ax": 565,
      "Ġscared": 566,
      "ust": 567,
      "ĠAnn": 568,
      "Ġone": 569,
      "Ġdog": 570,
      "Ġdown": 571,
      "ouse": 572,
      "ny": 573,
      "Ġfind": 574,
      "Ġcare": 575,
      "Ġbec": 576,
      "ist": 577,
      "Ġthan": 578,
      "Ġfeel": 579,
      "ap": 580,
      "ĠSara": 581,
      "Ġdad": 582,
      "Ġab": 583,
      "Ġmy": 584,
      "Ġlook": 585,
      "Ġke": 586,
      "our": 587,
      "ĠAnna": 588,
      "Ġwill": 589,
      "arn": 590,
      "Ġgr": 591,
      "nder": 592,
      "Ġgra": 593,
      "ĠMax": 594,
      "ways": 595,
      "ess": 596,
      "Ġdidn": 597,
      "Ġpo": 598,
      "fe": 599,
      "Ġalways": 600,
      "Ġtook": 601,
      "Ġabout": 602,
      "ant": 603,
      "bb": 604,
      "Ġlot": 605,
      "Ġmommy": 606,
      "Ġkne": 607,
      "Ġtoys": 608,
      "ers": 609,
      "ise": 610,
      "ĠSo": 611,
      "Ġbu": 612,
      "ite": 613,
      "Ġoutside": 614,
      "Ġtree": 615,
      "Ġthought": 616,
      "Ġball": 617,
      "Ġmore": 618,
      "eci": 619,
      "ened": 620,
      "Ġta": 621,
      "ched": 622,
      "Ġold": 623,
      "Ġho": 624,
      "Ġlearn": 625,
      "ret": 626,
      "Ġint": 627,
      "ged": 628,
      "ĠWhen": 629,
      "Ġpu": 630,
      "Ġknow": 631,
      "ĠJo": 632,
      "Ġlaug": 633,
      "ecial": 634,
      "Ġtake": 635,
      "Ġspecial": 636,
      "Ġsor": 637,
      "dden": 638,
      "Ġcat": 639,
      "Ġknew": 640,
      "ive": 641,
      "ĠHer": 642,
      "ia": 643,
      "Ġpe": 644,
      "Ġany": 645,
      "ddenly": 646,
      "Ġtr": 647,
      "fter": 648,
      "Ġhow": 649,
      "au": 650,
      "ma": 651,
      "Ġshow": 652,
      "ink": 653,
      "Ġsorry": 654,
      "Ġtw": 655,
      "Ġmuch": 656,
      "ĠJack": 657,
      "ish": 658,
      "Ġrun": 659,
      "and": 660,
      "ĠEvery": 661,
      "Ġhand": 662,
      "Ġsl": 663,
      "ven": 664,
      "Ġhouse": 665,
      "Ġop": 666,
      "Ġor": 667,
      "Ġsk": 668,
      "Ġmo": 669,
      "Ġclo": 670,
      "Ġsun": 671,
      "Ġinto": 672,
      "Ġtried": 673,
      "Ġinside": 674,
      "ate": 675,
      "Ġwater": 676,
      "Ġtold": 677,
      "Ġthis": 678,
      "ank": 679,
      "Ġen": 680,
      "Ġif": 681,
      "ump": 682,
      "Ġproud": 683,
      "Ġqu": 684,
      "Ġover": 685,
      "Ġcouldn": 686,
      "dy": 687,
      "Ġgave": 688,
      "Ġheard": 689,
      "Ġnever": 690,
      "by": 691,
      "Ġeach": 692,
      "ace": 693,
      "Ġroom": 694,
      "Ġexpl": 695,
      "here": 696,
      "Ġeat": 697,
      "ty": 698,
      "ĠSuddenly": 699,
      "ĠWe": 700,
      "other": 701,
      "ause": 702,
      "Ġpick": 703,
      "ion": 704,
      "Ġpret": 705,
      "Ġplayed": 706,
      "ge": 707,
      "etter": 708,
      "ĠThen": 709,
      "Ġjust": 710,
      "ak": 711,
      "ĠMia": 712,
      "Ġhugged": 713,
      "Ġgre": 714,
      "Ġoff": 715,
      "Ġwat": 716,
      "Ġcom": 717,
      "oth": 718,
      "Ġbox": 719,
      "Ġnice": 720,
      "ĠFrom": 721,
      "ue": 722,
      "'m": 723,
      "Ġstr": 724,
      "Ġbecause": 725,
      "Ġneed": 726,
      "ĠHis": 727,
      "ile": 728,
      "Ġmany": 729,
      "ĠAnd": 730,
      "Ġfo": 731,
      "Ġjo": 732,
      "uc": 733,
      "Ġbear": 734,
      "Ġsmall": 735,
      "iz": 736,
      "Ġlong": 737,
      "ving": 738,
      "ine": 739,
      "sed": 740,
      "gry": 741,
      "imal": 742,
      "Ġanimal": 743,
      "ort": 744,
      "Ġsn": 745,
      "ough": 746,
      "Ġtry": 747,
      "Ġunt": 748,
      "ild": 749,
      "sel": 750,
      "urt": 751,
      "Ġuntil": 752,
      "ĠC": 753,
      "Ġlearned": 754,
      "Ġkind": 755,
      "Ġim": 756,
      "ĠâĢ": 757,
      "Ġlove": 758,
      "Ġbetter": 759,
      "Ġflow": 760,
      "Ġcall": 761,
      "Ġdon": 762,
      "Ġend": 763,
      "Ġad": 764,
      "vent": 765,
      "Ġbest": 766,
      "Yes": 767,
      "urp": 768,
      "ars": 769,
      "em": 770,
      "ady": 771,
      "ream": 772,
      "aut": 773,
      "urn": 774,
      "Ġcle": 775,
      "ves": 776,
      "ĠâĢľ": 777,
      "âĢĿ": 778,
      "arden": 779,
      "Ġgarden": 780,
      "Ġfast": 781,
      "Ġcu": 782,
      "ber": 783,
      "lly": 784,
      "Ġcareful": 785,
      "Ġbeaut": 786,
      "pt": 787,
      "Ġeven": 788,
      "Ġbra": 789,
      "Ġthanked": 790,
      "Ġfi": 791,
      "ies": 792,
      "Ġche": 793,
      "Ġlaughed": 794,
      "Ġsky": 795,
      "Ġby": 796,
      "Ġjump": 797,
      "Ġgl": 798,
      "ase": 799,
      "Ġloud": 800,
      "self": 801,
      "Th": 802,
      "iny": 803,
      "Ġte": 804,
      "Ġway": 805,
      "wn": 806,
      "Ġbeauti": 807,
      "Ġcome": 808,
      "lew": 809,
      "Ġlist": 810,
      "Ġwo": 811,
      "Ġbeautiful": 812,
      "Ġhard": 813,
      "Ġlots": 814,
      "Ġra": 815,
      "Ġstill": 816,
      "Ġanimals": 817,
      "Ġfam": 818,
      "Ġhurt": 819,
      "Ġunder": 820,
      "ĠP": 821,
      "ĠJoh": 822,
      "ning": 823,
      "Ġstay": 824,
      "ect": 825,
      "Ġlet": 826,
      "ct": 827,
      "Ġboth": 828,
      "sh": 829,
      "be": 830,
      "hes": 831,
      "Ġsafe": 832,
      "ool": 833,
      "ree": 834,
      "Ġtwo": 835,
      "Ġcol": 836,
      "Ġbad": 837,
      "It": 838,
      "Ġbook": 839,
      "Ġimp": 840,
      "Ġrem": 841,
      "ople": 842,
      "ane": 843,
      "ĠAs": 844,
      "Ġlived": 845,
      "kay": 846,
      "ucy": 847,
      "ock": 848,
      "Ġwalked": 849,
      "ast": 850,
      "Ġsu": 851,
      "urpr": 852,
      "ĠLucy": 853,
      "Ġbrave": 854,
      "Ġshould": 855,
      "Ġits": 856,
      "ob": 857,
      "ished": 858,
      "Ġangry": 859,
      "Ġsurpr": 860,
      "Ġfamily": 861,
      "ress": 862,
      "Ġflew": 863,
      "igh": 864,
      "Ġpeople": 865,
      "Ġcalled": 866,
      "Ġred": 867,
      "ĠAfter": 868,
      "No": 869,
      "Ġstor": 870,
      "Ġsoon": 871,
      "Ġfin": 872,
      "ip": 873,
      "Let": 874,
      "led": 875,
      "Ġkept": 876,
      "Ġfore": 877,
      "fore": 878,
      "Ġdan": 879,
      "Ġshare": 880,
      "Ġfly": 881,
      "ĠJohn": 882,
      "ĠMommy": 883,
      "ised": 884,
      "dded": 885,
      "Ġpic": 886,
      "Ġdoor": 887,
      "Ġgoing": 888,
      "ĠG": 889,
      "Ġpretty": 890,
      "ĠDad": 891,
      "Ġkeep": 892,
      "Ġnow": 893,
      "Ġclean": 894,
      "Ġdra": 895,
      "Ġrock": 896,
      "ary": 897,
      "Ġadvent": 898,
      "ummy": 899,
      "Ġnoise": 900,
      "Ġopened": 901,
      "age": 902,
      "Ġshiny": 903,
      "Ġwind": 904,
      "Ġexplore": 905,
      "Ġcon": 906,
      "Ġcry": 907,
      "Ġdoll": 908,
      "Ġide": 909,
      "Ġbefore": 910,
      "ied": 911,
      "illy": 912,
      "Ġreal": 913,
      "Ġsto": 914,
      "so": 915,
      "What": 916,
      "Ġground": 917,
      "les": 918,
      "Ġalso": 919,
      "Ġturn": 920,
      "âĢĻ": 921,
      "Ġey": 922,
      "Ġfar": 923,
      "Ġidea": 924,
      "Ġfr": 925,
      "ĠSp": 926,
      "Ġnodded": 927,
      "Ġcolor": 928,
      "Ġwar": 929,
      "ture": 930,
      "Ġfeeling": 931,
      "Ġun": 932,
      "Ġpicked": 933,
      "oy": 934,
      "imb": 935,
      "th": 936,
      "Ġwalking": 937,
      "Ġnext": 938,
      "thing": 939,
      "ĠBob": 940,
      "Ġclimb": 941,
      "Ġhas": 942,
      "Ġma": 943,
      "Ġthr": 944,
      "Ġwhile": 945,
      "eet": 946,
      "Ġadventure": 947,
      "Ġbed": 948,
      "Ġsmile": 949,
      "kes": 950,
      "That": 951,
      "aybe": 952,
      "iced": 953,
      "ger": 954,
      "Thank": 955,
      "ious": 956,
      "Ġbeing": 957,
      "Ġdif": 958,
      "Ġwr": 959,
      "Ġclos": 960,
      "joy": 961,
      "Ġfood": 962,
      "Ġgive": 963,
      "Ġpicture": 964,
      "ĠN": 965,
      "Ġthink": 966,
      "Ġlooking": 967,
      "ff": 968,
      "Ġdel": 969,
      "Ġtruck": 970,
      "Ġwait": 971,
      "Ġeyes": 972,
      "ught": 973,
      "ac": 974,
      "Ġtow": 975,
      "Ġrepl": 976,
      "Ġstopped": 977,
      "Ġbro": 978,
      "ting": 979,
      "Ġlisten": 980,
      "Ġgi": 981,
      "Ġafter": 982,
      "ĠR": 983,
      "Ġbre": 984,
      "Ġvo": 985,
      "Ġown": 986,
      "Ġwalk": 987,
      "ember": 988,
      "Ġgreat": 989,
      "Ġwonder": 990,
      "ĠSpot": 991,
      "Ġhands": 992,
      "Ġshout": 993,
      "Ġhead": 994,
      "Ġenjoy": 995,
      "Ġimport": 996,
      "ĠSue": 997,
      "Ġflowers": 998,
      "Ġever": 999,
      "Ġforest": 1000,
      "Ġnoticed": 1001,
      "bbit": 1002,
      "Ġblue": 1003,
      "ized": 1004,
      "Ġapp": 1005,
      "irst": 1006,
      "Ġnear": 1007,
      "Ġde": 1008,
      "Ġquick": 1009,
      "Ġdis": 1010,
      "able": 1011,
      "Ġremember": 1012,
      "Ġimportant": 1013,
      "Ġfish": 1014,
      "ted": 1015,
      "llow": 1016,
      "Ġsound": 1017,
      "oon": 1018,
      "Ġslide": 1019,
      "Ġus": 1020,
      "Ġreplied": 1021,
      "maz": 1022,
      "Ġac": 1023,
      "Ġamaz": 1024,
      "Ġwatch": 1025,
      "lease": 1026,
      "Ġwork": 1027,
      "Ġrain": 1028,
      "Ġshowed": 1029,
      "Ġrabbit": 1030,
      "gan": 1031,
      "Ġokay": 1032,
      "Ġtal": 1033,
      "bye": 1034,
      "fere": 1035,
      "bbed": 1036,
      "ĠSarah": 1037,
      "Ġru": 1038,
      "Ġask": 1039,
      "Ġdiffere": 1040,
      "Ġmean": 1041,
      "Ġright": 1042,
      "Ġtou": 1043,
      "Ġye": 1044,
      "day": 1045,
      "Ġwatched": 1046,
      "Ġbright": 1047,
      "Ġfollow": 1048,
      "Ġeveryone": 1049,
      "Ġstrong": 1050,
      "We": 1051,
      "Ġsqu": 1052,
      "Ġstick": 1053,
      "Ġmor": 1054,
      "Ġuse": 1055,
      "Ġbeen": 1056,
      "Ġvoice": 1057,
      "Ġtra": 1058,
      "ered": 1059,
      "Ġquickly": 1060,
      "ath": 1061,
      "Ġwhere": 1062,
      "Ġour": 1063,
      "Ġyell": 1064,
      "ĠJane": 1065,
      "Ġdifferent": 1066,
      "Ġchild": 1067,
      "Ġcuri": 1068,
      "Ġboat": 1069,
      "ng": 1070,
      "Ġsure": 1071,
      "Ġbecame": 1072,
      "Ġface": 1073,
      "Ġgoodbye": 1074,
      "Ġplace": 1075,
      "ange": 1076,
      "Ġhop": 1077,
      "ĠTh": 1078,
      "Ġhigh": 1079,
      "aught": 1080,
      "Ġam": 1081,
      "Look": 1082,
      "Ġcloser": 1083,
      "Ġstore": 1084,
      "Ġwarm": 1085,
      "Ġdoes": 1086,
      "Ġdress": 1087,
      "Ġcr": 1088,
      "unny": 1089,
      "Ġcurious": 1090,
      "Ġmag": 1091,
      "ĠJoe": 1092,
      "ila": 1093,
      "Ġbel": 1094,
      "Ġforg": 1095,
      "Ġcook": 1096,
      "Ġtell": 1097,
      "Ġfav": 1098,
      "ndma": 1099,
      "ount": 1100,
      "Ġthree": 1101,
      "ass": 1102,
      "co": 1103,
      "leep": 1104,
      "Ġnight": 1105,
      "Ġopen": 1106,
      "Ġcake": 1107,
      "more": 1108,
      "Ġanymore": 1109,
      "Ġhere": 1110,
      "ĠLila": 1111,
      "Ġfirst": 1112,
      "ull": 1113,
      "Ġpull": 1114,
      "itc": 1115,
      "iss": 1116,
      "Ġblock": 1117,
      "ached": 1118,
      "ired": 1119,
      "Ġbutter": 1120,
      "imes": 1121,
      "Ġz": 1122,
      "orn": 1123,
      "Ġsweet": 1124,
      "Ġpain": 1125,
      "Ġkid": 1126,
      "Ġgrabbed": 1127,
      "ĠIn": 1128,
      "Can": 1129,
      "Ġmon": 1130,
      "isy": 1131,
      "Ġonly": 1132,
      "Ġlea": 1133,
      "Ġfell": 1134,
      "Ġba": 1135,
      "Ġcont": 1136,
      "Ġbirds": 1137,
      "ĠEveryone": 1138,
      "Ġjumped": 1139,
      "Ġglad": 1140,
      "Ġsand": 1141,
      "Ġbit": 1142,
      "itchen": 1143,
      "Ġkitchen": 1144,
      "ĠThat": 1145,
      "Ġhelped": 1146,
      "Ġsees": 1147,
      "Ġper": 1148,
      "Ġfire": 1149,
      "Ġflo": 1150,
      "Ġstop": 1151,
      "Ġhappened": 1152,
      "Ġsing": 1153,
      "Ġgrass": 1154,
      "Ġshouted": 1155,
      "Ġbunny": 1156,
      "Ġdr": 1157,
      "ĠLet": 1158,
      "nts": 1159,
      "Ġstory": 1160,
      "Ġtri": 1161,
      "air": 1162,
      "ĠDo": 1163,
      "ppy": 1164,
      "Ġreached": 1165,
      "Ġbeh": 1166,
      "Ġyummy": 1167,
      "Ġbrother": 1168,
      "Ġrealized": 1169,
      "Mom": 1170,
      "ĠTommy": 1171,
      "Ġlady": 1172,
      "ey": 1173,
      "Ġhaving": 1174,
      "Ġmum": 1175,
      "Ġprin": 1176,
      "ins": 1177,
      "Ġfavor": 1178,
      "Ġmess": 1179,
      "Ġcre": 1180,
      "'re": 1181,
      "Ġfavorite": 1182,
      "Ġdraw": 1183,
      "Ġrest": 1184,
      "Ġthrough": 1185,
      "Ġhat": 1186,
      "Ġate": 1187,
      "Ġgame": 1188,
      "Ġless": 1189,
      "Ġunderst": 1190,
      "akes": 1191,
      "Ġsoft": 1192,
      "zy": 1193,
      "Ġpare": 1194,
      "Ġreally": 1195,
      "Ġthing": 1196,
      "ather": 1197,
      "Ġready": 1198,
      "Ġbegan": 1199,
      "Ġpretend": 1200,
      "where": 1201,
      "Ġworld": 1202,
      "ĠCan": 1203,
      "Ġlooks": 1204,
      "Ġhimself": 1205,
      "ken": 1206,
      "Ġmagic": 1207,
      "fully": 1208,
      "Ġpap": 1209,
      "Ġdone": 1210,
      "Ġbutterf": 1211,
      "Ġcut": 1212,
      "Ġmaking": 1213,
      "Ġcoming": 1214,
      "Ġduck": 1215,
      "ater": 1216,
      "Ġpond": 1217,
      "Ġkids": 1218,
      "Ġwaved": 1219,
      "Ġwhy": 1220,
      "Ġprom": 1221,
      "Ġtired": 1222,
      "Ġfro": 1223,
      "Ġfix": 1224,
      "Ġmouse": 1225,
      "Ġworry": 1226,
      "ster": 1227,
      "Ġcars": 1228,
      "olly": 1229,
      "Ġpart": 1230,
      "Ġflower": 1231,
      "Ġste": 1232,
      "Ġdelic": 1233,
      "Ġname": 1234,
      "ĠFin": 1235,
      "ign": 1236,
      "Ġfill": 1237,
      "Wow": 1238,
      "Ġtouch": 1239,
      "aisy": 1240,
      "eddy": 1241,
      "Ġfunny": 1242,
      "Ġcatch": 1243,
      "bo": 1244,
      "Ġused": 1245,
      "Ġhair": 1246,
      "Ġseen": 1247,
      "ĠSally": 1248,
      "Ġtast": 1249,
      "rel": 1250,
      "Ġtop": 1251,
      "ient": 1252,
      "Ġparents": 1253,
      "Ġanother": 1254,
      "Ġhold": 1255,
      "Ġhopped": 1256,
      "iver": 1257,
      "oney": 1258,
      "Ġcried": 1259,
      "mer": 1260,
      "Ġcool": 1261,
      "Ġdoing": 1262,
      "\".": 1263,
      "Ġblocks": 1264,
      "Ġsurprise": 1265,
      "Ġlight": 1266,
      "hy": 1267,
      "Ġgreen": 1268,
      "Ġthank": 1269,
      "Ġlesson": 1270,
      "ation": 1271,
      "Ġread": 1272,
      "Ġdin": 1273,
      "Ġfloor": 1274,
      "Ġwood": 1275,
      "Ġdri": 1276,
      "ards": 1277,
      "Don": 1278,
      "Ġfull": 1279,
      "Ġtrees": 1280,
      "Ġrunning": 1281,
      "Ġwindow": 1282,
      "Ġworked": 1283,
      "Ġyears": 1284,
      "Ġcra": 1285,
      "Ġdro": 1286,
      "Ġ-": 1287,
      "Ġdark": 1288,
      "Ġbehind": 1289,
      "Ġsmell": 1290,
      "Ġlikes": 1291,
      "Ġwished": 1292,
      "Ġspot": 1293,
      "Ġpaper": 1294,
      "andy": 1295,
      "ued": 1296,
      "Ġyellow": 1297,
      "Ġbow": 1298,
      "Ġswim": 1299,
      "Ġhappily": 1300,
      "ren": 1301,
      "Ġsat": 1302,
      "Ġbag": 1303,
      "ul": 1304,
      "Ġsho": 1305,
      "aring": 1306,
      "Ġsleep": 1307,
      "Ġsurprised": 1308,
      "ely": 1309,
      "ĠDaisy": 1310,
      "us": 1311,
      "Ġfrog": 1312,
      "ĠEm": 1313,
      "Ġbutterfly": 1314,
      "Ġset": 1315,
      "Ġswing": 1316,
      "ike": 1317,
      "Ġcarefully": 1318,
      "Ġremembered": 1319,
      "Ġcold": 1320,
      "Ġslow": 1321,
      "ĠBenny": 1322,
      "Ġheld": 1323,
      "uff": 1324,
      "ĠJim": 1325,
      "Ġlost": 1326,
      "ello": 1327,
      "Ġice": 1328,
      "Ġhole": 1329,
      "Hello": 1330,
      "Ġlaugh": 1331,
      "rew": 1332,
      "ĠK": 1333,
      "ĠAt": 1334,
      "Ġneeded": 1335,
      "Ġbuy": 1336,
      "Ġperf": 1337,
      "Ġleft": 1338,
      "ons": 1339,
      "Ġmove": 1340,
      "reed": 1341,
      "cess": 1342,
      "Ġanything": 1343,
      "Ġdream": 1344,
      "Ġenjoyed": 1345,
      "Ġtall": 1346,
      "ĠBilly": 1347,
      "Ġwrong": 1348,
      "Ġarri": 1349,
      "ĠNow": 1350,
      "Ġhear": 1351,
      "Ġfair": 1352,
      "Ġair": 1353,
      "Ġfollowed": 1354,
      "ĠFinally": 1355,
      "ĠThere": 1356,
      "ross": 1357,
      "Ġel": 1358,
      "Ġbooks": 1359,
      "ĠTo": 1360,
      "Ġbus": 1361,
      "Ġhun": 1362,
      "Ġchildren": 1363,
      "Ġtable": 1364,
      "Ġdelicious": 1365,
      "Ġfinished": 1366,
      "ĠGra": 1367,
      "Ġfriendly": 1368,
      "Ġcontin": 1369,
      "Ġdir": 1370,
      "Ġsnow": 1371,
      "ĠMolly": 1372,
      "Ġhot": 1373,
      "!âĢĿ": 1374,
      "Ġherself": 1375,
      "lf": 1376,
      "ds": 1377,
      "ens": 1378,
      "Ġunderstand": 1379,
      "Ġhill": 1380,
      "Ġplease": 1381,
      "Ġclose": 1382,
      "ined": 1383,
      "Ġhid": 1384,
      "Ġarrived": 1385,
      "sp": 1386,
      "Ġcast": 1387,
      "ĠAmy": 1388,
      "Ġelse": 1389,
      "Ġarm": 1390,
      "Ġwonderful": 1391,
      "Ġmight": 1392,
      "Ġgent": 1393,
      "Ġbaby": 1394,
      "Ġtight": 1395,
      "Ġforgot": 1396,
      "ield": 1397,
      "Ġcolors": 1398,
      "Ġrel": 1399,
      "Ġbug": 1400,
      "Ġbuild": 1401,
      "Ġbroken": 1402,
      "Ġable": 1403,
      "Ġgone": 1404,
      "ner": 1405,
      "av": 1406,
      "ĠJen": 1407,
      ".âĢĿ": 1408,
      "Ġyes": 1409,
      "atter": 1410,
      "Ġsquir": 1411,
      "Ġsong": 1412,
      "ich": 1413,
      "Ġfilled": 1414,
      "Ġwall": 1415,
      "Ġagreed": 1416,
      "Ġsomeone": 1417,
      "Ġcreat": 1418,
      "Ġgu": 1419,
      "Ġcontinued": 1420,
      "room": 1421,
      "'ll": 1422,
      "asure": 1423,
      "Ġcount": 1424,
      "Ġwants": 1425,
      "Ġsquirrel": 1426,
      "Ġleaves": 1427,
      "Ġpink": 1428,
      "ask": 1429,
      "ĠThis": 1430,
      "Ġenough": 1431,
      "Ġlion": 1432,
      "ee": 1433,
      "ama": 1434,
      "Ġmorning": 1435,
      "Ġvis": 1436,
      "Ġmoment": 1437,
      "Ġfinally": 1438,
      "Ġgetting": 1439,
      "Ġstayed": 1440,
      "Ġbreak": 1441,
      "Ġcookies": 1442,
      "shed": 1443,
      "app": 1444,
      "Ġpoin": 1445,
      "ance": 1446,
      "Ġbeach": 1447,
      "ĠMaybe": 1448,
      "Ġfew": 1449,
      "Ġscary": 1450,
      "Ġfight": 1451,
      "Ġsometimes": 1452,
      "ries": 1453,
      "red": 1454,
      "row": 1455,
      "Ġhungry": 1456,
      "Ġdinner": 1457,
      "ced": 1458,
      "ĠWhat": 1459,
      "Ġturned": 1460,
      "ash": 1461,
      "Ġfall": 1462,
      "gon": 1463,
      "Ġju": 1464,
      "Ġgrandma": 1465,
      "Ġwet": 1466,
      "Ġmother": 1467,
      "Ġamazing": 1468,
      "apped": 1469,
      "Ġcream": 1470,
      "Ġtrying": 1471,
      "Ġdaddy": 1472,
      "Ġpi": 1473,
      "Ġperfect": 1474,
      "Ġmakes": 1475,
      "Ġcastle": 1476,
      "Ġothers": 1477,
      "key": 1478,
      "Ġclimbed": 1479,
      "oup": 1480,
      "Ġpictures": 1481,
      "Ġcomp": 1482,
      "icy": 1483,
      "amp": 1484,
      "Ġmet": 1485,
      "Ġtalk": 1486,
      "Ġmus": 1487,
      "ere": 1488,
      "man": 1489,
      "Ġlistened": 1490,
      "Ġwhite": 1491,
      "oom": 1492,
      "Ġsmiles": 1493,
      "Ġfur": 1494,
      "oring": 1495,
      "Ġballoon": 1496,
      "Ġclot": 1497,
      "ĠJill": 1498,
      "Ġalone": 1499,
      "Ġpol": 1500,
      "Ġclothes": 1501,
      "Ġtail": 1502,
      "Ġpuppy": 1503,
      "Ġjoy": 1504,
      "Ġspl": 1505,
      "ated": 1506,
      "rot": 1507,
      "ence": 1508,
      "Ġmar": 1509,
      "Ġwasn": 1510,
      "Ġbrought": 1511,
      "Ġdeep": 1512,
      "Ġeverything": 1513,
      "Ġpet": 1514,
      "Ġsear": 1515,
      "Oh": 1516,
      "ister": 1517,
      "Ġstrange": 1518,
      "ctor": 1519,
      "Ġspark": 1520,
      "Ġwoods": 1521,
      "elc": 1522,
      "Ġsit": 1523,
      "der": 1524,
      "Ġgrow": 1525,
      "Ġpulled": 1526,
      "ling": 1527,
      "Ġwon": 1528,
      "Ġsail": 1529,
      "ott": 1530,
      "Ġride": 1531,
      "eter": 1532,
      "Ġplan": 1533,
      "Ġasks": 1534,
      "Ġfox": 1535,
      "Ġpie": 1536,
      "Ġdanger": 1537,
      "uffy": 1538,
      "Ġtreat": 1539,
      "Ġvisit": 1540,
      "Ġroll": 1541,
      "Ġleave": 1542,
      "med": 1543,
      "os": 1544,
      "Ġpat": 1545,
      "This": 1546,
      "ucky": 1547,
      "Ġmusic": 1548,
      "Ġamazed": 1549,
      "Ġwaited": 1550,
      "ĠSoon": 1551,
      "Ġteddy": 1552,
      "Ġhide": 1553,
      "ang": 1554,
      "me": 1555,
      "But": 1556,
      "ever": 1557,
      "Ġtowards": 1558,
      "ower": 1559,
      "Ġfield": 1560,
      "Ġpre": 1561,
      "Ġland": 1562,
      "Ġflying": 1563,
      "ĠAll": 1564,
      "zz": 1565,
      "Ġsilly": 1566,
      "Ġshared": 1567,
      "ained": 1568,
      "Ġowner": 1569,
      "Ġpen": 1570,
      "Ġruns": 1571,
      "Ġcloud": 1572,
      "ape": 1573,
      "Ġjob": 1574,
      "ĠDaddy": 1575,
      "Ġqui": 1576,
      "Ġliving": 1577,
      "ames": 1578,
      "ugg": 1579,
      "igg": 1580,
      "Ġbelie": 1581,
      "Ġpromised": 1582,
      "Ġside": 1583,
      "Ġmoral": 1584,
      "orm": 1585,
      "gs": 1586,
      "ol": 1587,
      "Ġlake": 1588,
      "ix": 1589,
      "Ġthinks": 1590,
      "Maybe": 1591,
      "ĠMama": 1592,
      "cket": 1593,
      "ope": 1594,
      "Ġsec": 1595,
      "Ġpaint": 1596,
      "Ġsister": 1597,
      "ĠMary": 1598,
      "thy": 1599,
      "ually": 1600,
      "Ġparty": 1601,
      "Ġquiet": 1602,
      "Okay": 1603,
      "Ġrace": 1604,
      "ises": 1605,
      "cle": 1606,
      "Ġmust": 1607,
      "Ġmoney": 1608,
      "Ġwear": 1609,
      "avy": 1610,
      "sw": 1611,
      "Ġworried": 1612,
      "ased": 1613,
      "Ġansw": 1614,
      "unch": 1615,
      "eces": 1616,
      "Ġslowly": 1617,
      "Ġow": 1618,
      "Ġpieces": 1619,
      "Ġgrate": 1620,
      "Ġpot": 1621,
      "Ġcolorful": 1622,
      "Ġsmart": 1623,
      "Ġfaster": 1624,
      "Ġdance": 1625,
      "Ġbran": 1626,
      "Ġbott": 1627,
      "Ġbroke": 1628,
      "Ġwelc": 1629,
      "Ġcup": 1630,
      "Ġgrateful": 1631,
      "Ġsuch": 1632,
      "Ġgift": 1633,
      "ze": 1634,
      "Ġbigger": 1635,
      "ph": 1636,
      "Ġsnack": 1637,
      "Ġtrain": 1638,
      "ĠFl": 1639,
      "fort": 1640,
      "Ġreach": 1641,
      "Ġcho": 1642,
      "Ġblank": 1643,
      "ĠMr": 1644,
      "Ġpro": 1645,
      "Ġmonster": 1646,
      "Ġjoin": 1647,
      "Ġplant": 1648,
      "Ġriver": 1649,
      "Ġblack": 1650,
      "Ġcandy": 1651,
      "Ġwin": 1652,
      "less": 1653,
      "ire": 1654,
      "Ġele": 1655,
      "Ġscream": 1656,
      "Ġblanket": 1657,
      "uit": 1658,
      "Ġmagical": 1659,
      "Ġprincess": 1660,
      "Ġtreasure": 1661,
      "ear": 1662,
      "Ġstu": 1663,
      "ĠJust": 1664,
      "Ġmonkey": 1665,
      "Ġdragon": 1666,
      "Ġdangerous": 1667,
      "Ġbike": 1668,
      "OK": 1669,
      "Ġsign": 1670,
      "Ġacross": 1671,
      "Ġeverywhere": 1672,
      "Ġbar": 1673,
      "Ġhelping": 1674,
      "Ġmost": 1675,
      "Ġfarmer": 1676,
      "Ġnap": 1677,
      "outh": 1678,
      "Ġem": 1679,
      "Ġmouth": 1680,
      "set": 1681,
      "Why": 1682,
      "Ġdisapp": 1683,
      "Ġpa": 1684,
      "ĠJimmy": 1685,
      "Ġwords": 1686,
      "ipped": 1687,
      "Ġje": 1688,
      "Sure": 1689,
      "Ġstre": 1690,
      "ming": 1691,
      "eared": 1692,
      "Ġthrew": 1693,
      "ored": 1694,
      "Hi": 1695,
      "Ġdolls": 1696,
      "Ġbite": 1697,
      "Ġstepped": 1698,
      "Ġtower": 1699,
      "Ġheavy": 1700,
      "de": 1701,
      "Ġpass": 1702,
      "Ġmix": 1703,
      "Ġbowl": 1704,
      "Ġdirty": 1705,
      "Ġtwins": 1706,
      "Ġcrying": 1707,
      "Ġsame": 1708,
      "Ġbee": 1709,
      "Ġdoctor": 1710,
      "Ġspr": 1711,
      "ident": 1712,
      "ĠGrandma": 1713,
      "Ġacc": 1714,
      "Ġbelieve": 1715,
      "Ġwouldn": 1716,
      "Ġheal": 1717,
      "Ġbath": 1718,
      "Mommy": 1719,
      "chool": 1720,
      "Ġhig": 1721,
      "Ġcarrot": 1722,
      "bble": 1723,
      "Ġclosed": 1724,
      "Ġheart": 1725,
      "ĠMum": 1726,
      "cked": 1727,
      "Ġstuck": 1728,
      "The": 1729,
      "Ġcour": 1730,
      "Ġfruit": 1731,
      "Ġbuck": 1732,
      "Ġmin": 1733,
      "Ġatt": 1734,
      "Ġschool": 1735,
      "Ġteac": 1736,
      "Ġbrown": 1737,
      "Ġhoped": 1738,
      "Ġsuddenly": 1739,
      "asket": 1740,
      "iting": 1741,
      "ĠEmma": 1742,
      "Ġbasket": 1743,
      "vel": 1744,
      "Ġfeels": 1745,
      "Ġeating": 1746,
      "Ġchair": 1747,
      "Ġtown": 1748,
      "Ġcray": 1749,
      "Ġclapped": 1750,
      "Ġcourse": 1751,
      "?âĢĿ": 1752,
      "Ġcoll": 1753,
      "Ġfairy": 1754,
      "Ġgentle": 1755,
      "pping": 1756,
      "ventually": 1757,
      "Ġbutt": 1758,
      "Ġstand": 1759,
      "Ġpack": 1760,
      "ier": 1761,
      "Ġdrove": 1762,
      "ors": 1763,
      "Ġpushed": 1764,
      "issed": 1765,
      "br": 1766,
      "Ġwelcome": 1767,
      "Ġswings": 1768,
      "ĠInside": 1769,
      "Ġwithout": 1770,
      "Ġhigher": 1771,
      "Ġtoday": 1772,
      "Ġneigh": 1773,
      "Ġpocket": 1774,
      "orrow": 1775,
      "Ġhit": 1776,
      "Ġteacher": 1777,
      "Ġneighb": 1778,
      "ord": 1779,
      "Ġpers": 1780,
      "Ġsmo": 1781,
      "Ġgames": 1782,
      "Ġwings": 1783,
      "Ġpiece": 1784,
      "Ġcheered": 1785,
      "ract": 1786,
      "ourn": 1787,
      "Ġben": 1788,
      "Ġforget": 1789,
      "Ġyard": 1790,
      "Ġexplained": 1791,
      "Ġlonger": 1792,
      "Ġfree": 1793,
      "Ġjourn": 1794,
      "ible": 1795,
      "Ġcorn": 1796,
      "Ġaccident": 1797,
      "ho": 1798,
      "Ġdry": 1799,
      "ead": 1800,
      "Ġalong": 1801,
      "umb": 1802,
      "ment": 1803,
      "cy": 1804,
      "ek": 1805,
      "ĠTheir": 1806,
      "Ġsang": 1807,
      "itting": 1808,
      "Ġnoises": 1809,
      "Ġneck": 1810,
      "Ġlate": 1811,
      "Ġinst": 1812,
      "Ġhappen": 1813,
      "Ġthrow": 1814,
      "Ġhugs": 1815,
      "Ġyoung": 1816,
      "phant": 1817,
      "Ġstories": 1818,
      "Ġturns": 1819,
      "Ġshoes": 1820,
      "Ġlon": 1821,
      "Ġadventures": 1822,
      "Ġsinging": 1823,
      "Ġmiss": 1824,
      "Ġtrou": 1825,
      "Ġwell": 1826,
      "Ġupset": 1827,
      "Ġlunch": 1828,
      "Ġapple": 1829,
      "Ġsea": 1830,
      "Ġlonely": 1831,
      "Ġkey": 1832,
      "Ġelephant": 1833,
      "Ġstreet": 1834,
      "Ġbelong": 1835,
      "oun": 1836,
      "ches": 1837,
      "Ġdist": 1838,
      "Ġsecret": 1839,
      "Ġtom": 1840,
      "bby": 1841,
      "Ġwish": 1842,
      "Ġfence": 1843,
      "Ġplac": 1844,
      "Ġmine": 1845,
      "ountain": 1846,
      "Ġmat": 1847,
      "Ġexploring": 1848,
      "Ġshook": 1849,
      "Ġshap": 1850,
      "Ġmoved": 1851,
      "Ġyear": 1852,
      "Ġpurp": 1853,
      "Ġnearby": 1854,
      "Ġsoup": 1855,
      "Ġshop": 1856,
      "aughty": 1857,
      "Ġowl": 1858,
      "Ġwise": 1859,
      "Ġnaughty": 1860,
      "Ġstar": 1861,
      "Ġbring": 1862,
      "ĠSammy": 1863,
      "fused": 1864,
      "ĠFluffy": 1865,
      "Ġjar": 1866,
      "Ġstars": 1867,
      "ocked": 1868,
      "bow": 1869,
      "ĠTw": 1870,
      "Ġexp": 1871,
      "Ġinv": 1872,
      "Ġwhe": 1873,
      "Ġcaught": 1874,
      "yard": 1875,
      "Do": 1876,
      "ward": 1877,
      "Ġseemed": 1878,
      "Ġbackyard": 1879,
      "Ġes": 1880,
      "Ġrelie": 1881,
      "Ġdropped": 1882,
      "Ġrocks": 1883,
      "aughter": 1884,
      "ail": 1885,
      "llo": 1886,
      "Ġph": 1887,
      "Ġ3": 1888,
      "Ġdrink": 1889,
      "ces": 1890,
      "ts": 1891,
      "Ġdes": 1892,
      "adow": 1893,
      "Ġswam": 1894,
      "Ġbucket": 1895,
      "Ġpurple": 1896,
      "Ġfarm": 1897,
      "Ġtaking": 1898,
      "Ġresp": 1899,
      "ĠThank": 1900,
      "Ġorange": 1901,
      "Ġmail": 1902,
      "Ġthough": 1903,
      "Ġpast": 1904,
      "sy": 1905,
      "ions": 1906,
      "Ġshapes": 1907,
      "Ġcow": 1908,
      "Ġve": 1909,
      "col": 1910,
      "Ġbench": 1911,
      "Ġwoke": 1912,
      "Ġaf": 1913,
      "ung": 1914,
      "Ġsounds": 1915,
      "Ġbusy": 1916,
      "ity": 1917,
      "Ġwondered": 1918,
      "Ġtiny": 1919,
      "Ġfit": 1920,
      "ĠLater": 1921,
      "Ġnose": 1922,
      "Ġob": 1923,
      "Ġsitting": 1924,
      "Ġdaughter": 1925,
      "Ġnest": 1926,
      "Ġrainbow": 1927,
      "Ġmad": 1928,
      "Ġkite": 1929,
      "Ġmark": 1930,
      "Ġtakes": 1931,
      "ese": 1932,
      "Ġcou": 1933,
      "Ġholding": 1934,
      "read": 1935,
      "to": 1936,
      "Ġjuice": 1937,
      "Ġnothing": 1938,
      "fish": 1939,
      "Lily": 1940,
      "Ġcomes": 1941,
      "Ġarms": 1942,
      "thday": 1943,
      "Ġpig": 1944,
      "Ġcoat": 1945,
      "og": 1946,
      "ining": 1947,
      "ĠWith": 1948,
      "Ġcir": 1949,
      "raid": 1950,
      "Ġbranch": 1951,
      "Ġrelieved": 1952,
      "ĠEll": 1953,
      "pper": 1954,
      "Ġafraid": 1955,
      "cing": 1956,
      "Ġdriver": 1957,
      "ose": 1958,
      "idge": 1959,
      "vered": 1960,
      "Ġspoon": 1961,
      "Ġforever": 1962,
      "Ġcute": 1963,
      "Ġmil": 1964,
      "ĠAl": 1965,
      "Ġcarry": 1966,
      "Ġsick": 1967,
      "Ġboun": 1968,
      "ale": 1969,
      "Ġpromise": 1970,
      "sting": 1971,
      "Ġpeace": 1972,
      "ours": 1973,
      "Ġlift": 1974,
      "Of": 1975,
      "unt": 1976,
      "Ġtouched": 1977,
      "Ġpatient": 1978,
      "ĠJenny": 1979,
      "Ġhuge": 1980,
      "Ġking": 1981,
      "Ġact": 1982,
      "Ġhello": 1983,
      "Ġround": 1984,
      "sc": 1985,
      "Ġfing": 1986,
      "ĠCome": 1987,
      "Ġbirthday": 1988,
      "Ġletter": 1989,
      "cer": 1990,
      "Ġgrab": 1991,
      "ĠTweet": 1992,
      "Ġsunny": 1993,
      "Ġintere": 1994,
      "Ġcheese": 1995,
      "Ġexciting": 1996,
      "let": 1997,
      "Ġonto": 1998,
      "Ġbush": 1999,
      "eth": 2000,
      "Ġlaughing": 2001,
      "board": 2002,
      "Ġcreature": 2003,
      "Ġdays": 2004,
      "Ġjourney": 2005,
      "Ġgigg": 2006,
      "Ġband": 2007,
      "Ġbread": 2008,
      "Ġdisco": 2009,
      "ĠWh": 2010,
      "arp": 2011,
      "ittens": 2012,
      "Hey": 2013,
      "Ġimag": 2014,
      "Ġret": 2015,
      "ped": 2016,
      "shine": 2017,
      "Ġkick": 2018,
      "Ġpower": 2019,
      "Ġlife": 2020,
      "gged": 2021,
      "Ġhope": 2022,
      "Ġinc": 2023,
      "Ġcozy": 2024,
      "Ġswimming": 2025,
      "Ġcraw": 2026,
      "Ġsharp": 2027,
      "Ġshell": 2028,
      "Ġwra": 2029,
      "Ġmist": 2030,
      "gg": 2031,
      "Ġbottle": 2032,
      "ness": 2033,
      "Ġcomfort": 2034,
      "Ġinstead": 2035,
      "Ġwatching": 2036,
      "Ġsuc": 2037,
      "Ġwhist": 2038,
      "ĠEmily": 2039,
      "Ġspin": 2040,
      "Ġear": 2041,
      "Ġreturn": 2042,
      "Ġmilk": 2043,
      "alm": 2044,
      "Ġaccidentally": 2045,
      "ten": 2046,
      "Ġeas": 2047,
      "Ġsunshine": 2048,
      "ĠCh": 2049,
      "pa": 2050,
      "Ġcave": 2051,
      "Ġspo": 2052,
      "Ġtalked": 2053,
      "Ġlucky": 2054,
      "Ġhoney": 2055,
      "Ġpudd": 2056,
      "Ġputs": 2057,
      "Ġcollect": 2058,
      "Ġpointed": 2059,
      "Ġgives": 2060,
      "Ġgather": 2061,
      "itch": 2062,
      "Ġent": 2063,
      "Ġroad": 2064,
      "Ġanyone": 2065,
      "Ġsmiling": 2066,
      "Ġbought": 2067,
      "Ġhor": 2068,
      "Ġce": 2069,
      "Ġfan": 2070,
      "Ġsearched": 2071,
      "Ġlater": 2072,
      "Ġsandw": 2073,
      "round": 2074,
      "Ġapples": 2075,
      "ball": 2076,
      "itten": 2077,
      "els": 2078,
      "blem": 2079,
      "Ġproblem": 2080,
      "irt": 2081,
      "ize": 2082,
      "Ġmeet": 2083,
      "Ġmach": 2084,
      "Ġwom": 2085,
      "Ġwoman": 2086,
      "Ġinteresting": 2087,
      "Ġloves": 2088,
      "Good": 2089,
      "Ġplane": 2090,
      "Ġpres": 2091,
      "Ġkiss": 2092,
      "Ġducks": 2093,
      "eb": 2094,
      "Ġtasty": 2095,
      "Ġhealthy": 2096,
      "ont": 2097,
      "Ġvill": 2098,
      "ove": 2099,
      "Ġpile": 2100,
      "amed": 2101,
      "Ġwide": 2102,
      "aur": 2103,
      "ub": 2104,
      "Ġcrayons": 2105,
      "Ġeag": 2106,
      "Ġadm": 2107,
      "Ġspid": 2108,
      "Ġclever": 2109,
      "Ġmatter": 2110,
      "erly": 2111,
      "Ġtrouble": 2112,
      "ndpa": 2113,
      "Ġprot": 2114,
      "Ġzoom": 2115,
      "Ġstorm": 2116,
      "Ġclouds": 2117,
      "Ġrope": 2118,
      "owed": 2119,
      "Ġpill": 2120,
      "Ġpath": 2121,
      "Ġperson": 2122,
      "Ġfeather": 2123,
      "cks": 2124,
      "Ġpop": 2125,
      "Ġfront": 2126,
      "Ġshining": 2127,
      "Ġsmelled": 2128,
      "Ġprotect": 2129,
      "Ġhon": 2130,
      "Ġbutton": 2131,
      "ĠHow": 2132,
      "Ġpract": 2133,
      "Ġspotted": 2134,
      "Ġscreamed": 2135,
      "ĠJake": 2136,
      "Ġpresent": 2137,
      "Ġminut": 2138,
      "Ġzoo": 2139,
      "Come": 2140,
      "Ġap": 2141,
      "Ġval": 2142,
      "Ġmud": 2143,
      "ĠSomet": 2144,
      "Ġsaf": 2145,
      "Ġrespect": 2146,
      "Ġorgan": 2147,
      "Ġcheer": 2148,
      "Ġdanced": 2149,
      "Ġappeared": 2150,
      "Ġsnowman": 2151,
      "Ġwhich": 2152,
      "Ġpar": 2153,
      "ond": 2154,
      "Ġpuzz": 2155,
      "Ġquest": 2156,
      "Ġseat": 2157,
      "Ġteach": 2158,
      "isa": 2159,
      "Ġmyster": 2160,
      "Ġsnake": 2161,
      "Ġthin": 2162,
      "ert": 2163,
      "Ġwild": 2164,
      "Ġlovely": 2165,
      "ĠSt": 2166,
      "Ġasleep": 2167,
      "Ġsur": 2168,
      "Ġanswer": 2169,
      "epend": 2170,
      "ĠTogether": 2171,
      "Ġgently": 2172,
      "Ġwearing": 2173,
      "ĠMittens": 2174,
      "Ġhorse": 2175,
      "Ġneighbor": 2176,
      "Ġbark": 2177,
      "Ġplaces": 2178,
      "oose": 2179,
      "Ġwhole": 2180,
      "Ġgiant": 2181,
      "Ġgoes": 2182,
      "Ġsearch": 2183,
      "Ġsplas": 2184,
      "Ġcorner": 2185,
      "up": 2186,
      "Ġimpress": 2187,
      "Ġdirt": 2188,
      "ular": 2189,
      "Ġshr": 2190,
      "een": 2191,
      "ĠLisa": 2192,
      "Ġtries": 2193,
      "Ġmed": 2194,
      "Ġlive": 2195,
      "Ġconfused": 2196,
      "Ġtrip": 2197,
      "Ġdi": 2198,
      "Ġcard": 2199,
      "Ġmind": 2200,
      "Ġrolled": 2201,
      "ato": 2202,
      "Ġtasted": 2203,
      "Ġslid": 2204,
      "nic": 2205,
      "cean": 2206,
      "Ġash": 2207,
      "Ġsupp": 2208,
      "Ġocean": 2209,
      "ĠGo": 2210,
      "Ġforgive": 2211,
      "Ġpicnic": 2212,
      "Ġrude": 2213,
      "Ġca": 2214,
      "Ġmachine": 2215,
      "Ġspent": 2216,
      "Ġdrive": 2217,
      "Ġteeth": 2218,
      "ssed": 2219,
      "Ġphone": 2220,
      "Ġser": 2221,
      "ĠLe": 2222,
      "itty": 2223,
      "Ġoven": 2224,
      "Ġpour": 2225,
      "Ġcalm": 2226,
      "Ġlast": 2227,
      "Ġpretended": 2228,
      "Ġpan": 2229,
      "la": 2230,
      "Ġdelight": 2231,
      "Ġfurry": 2232,
      "izz": 2233,
      "Ġcookie": 2234,
      "Ġfeet": 2235,
      "Ġspider": 2236,
      "Ġring": 2237,
      "Ġfaces": 2238,
      "Ġlay": 2239,
      "unk": 2240,
      "umber": 2241,
      "Ġworm": 2242,
      "Ġrec": 2243,
      "Ġhelpful": 2244,
      "ĠPeter": 2245,
      "ĠBe": 2246,
      "Ġeventually": 2247,
      "Ġwip": 2248,
      "Ġlad": 2249,
      "Ġwave": 2250,
      "Ġchick": 2251,
      "Ġmountain": 2252,
      "Ġban": 2253,
      "Ġemb": 2254,
      "Ġsal": 2255,
      "Ġshy": 2256,
      "Ġtalking": 2257,
      "Ġrob": 2258,
      "Ġfold": 2259,
      "ones": 2260,
      "Tom": 2261,
      "Ġcart": 2262,
      "Ġtomorrow": 2263,
      "Ġsel": 2264,
      "Ġspread": 2265,
      "Ġvillage": 2266,
      "Ġtid": 2267,
      "arge": 2268,
      "Ġchocol": 2269,
      "ife": 2270,
      "Ġbubble": 2271,
      "Ġremind": 2272,
      "Ġign": 2273,
      "Ġcouch": 2274,
      "Ġtun": 2275,
      "Ġwrite": 2276,
      "Ġcoin": 2277,
      "Ġfoot": 2278,
      "Ġpush": 2279,
      "Ġfighting": 2280,
      "Ġsmooth": 2281,
      "Ġbuilding": 2282,
      "Ġladder": 2283,
      "ĠSometimes": 2284,
      "Ġblew": 2285,
      "Ġchased": 2286,
      "ĠLittle": 2287,
      "ighed": 2288,
      "Ġwore": 2289,
      "Ġtreats": 2290,
      "Ġtool": 2291,
      "Ġstret": 2292,
      "lex": 2293,
      "arra": 2294,
      "per": 2295,
      "Ġbugs": 2296,
      "Ġembarra": 2297,
      "oph": 2298,
      "Ġhiding": 2299,
      "Ġpool": 2300,
      "Ġwaiting": 2301,
      "Ġcross": 2302,
      "Ġbell": 2303,
      "My": 2304,
      "Ġshelf": 2305,
      "Ġrobot": 2306,
      "Ġpuddle": 2307,
      "not": 2308,
      "Ġ'": 2309,
      "Ġstep": 2310,
      "Ġknee": 2311,
      "mo": 2312,
      "Ġcoo": 2313,
      "Ġneckl": 2314,
      "Ġfinish": 2315,
      "Ġwhenever": 2316,
      "ĠTeddy": 2317,
      "ator": 2318,
      "als": 2319,
      "Ġstir": 2320,
      "Ġant": 2321,
      "Ġselfish": 2322,
      "Ġmaybe": 2323,
      "Ġsongs": 2324,
      "Ġcannot": 2325,
      "ĠMummy": 2326,
      "Ġstring": 2327,
      "Ġstra": 2328,
      "ĠEverywhere": 2329,
      "ĠSus": 2330,
      "Ġtaste": 2331,
      "Ġsol": 2332,
      "ult": 2333,
      "Ġlarge": 2334,
      "Ġspe": 2335,
      "Ġchocolate": 2336,
      "Ġrep": 2337,
      "Ġnet": 2338,
      "box": 2339,
      "Ġhum": 2340,
      "Ġpaw": 2341,
      "Ġscar": 2342,
      "Ġple": 2343,
      "lebr": 2344,
      "Ġbanan": 2345,
      "umpy": 2346,
      "Ġsack": 2347,
      "Ġleaf": 2348,
      "Ġstone": 2349,
      "Ġfixed": 2350,
      "Ġbarked": 2351,
      "Ġtidy": 2352,
      "Ġwash": 2353,
      "Ġcelebr": 2354,
      "Ġspray": 2355,
      "old": 2356,
      "Please": 2357,
      "Ġcloth": 2358,
      "Ġgen": 2359,
      "ĠBu": 2360,
      "Ġcrab": 2361,
      "Ġpeaceful": 2362,
      "Ġcolour": 2363,
      "ĠJohnn": 2364,
      "ungle": 2365,
      "Ġhel": 2366,
      "ĠPlease": 2367,
      "ush": 2368,
      "Ġmissed": 2369,
      "oin": 2370,
      "Ġdeter": 2371,
      "Ġjungle": 2372,
      "ird": 2373,
      "arm": 2374,
      "Ġdeterm": 2375,
      "iger": 2376,
      "St": 2377,
      "Ġembarrassed": 2378,
      "ĠSome": 2379,
      "Ġlanded": 2380,
      "Ġforward": 2381,
      "ĠJohnny": 2382,
      "airs": 2383,
      "Ġnecklace": 2384,
      "Ġtrust": 2385,
      "Ġjumping": 2386,
      "Ġhonest": 2387,
      "dge": 2388,
      "Ġdecor": 2389,
      "ĠAlice": 2390,
      "Ġbat": 2391,
      "Ġhears": 2392,
      "ĠTV": 2393,
      "orry": 2394,
      "Ġsticks": 2395,
      "Ġcreative": 2396,
      "Ġshirt": 2397,
      "Ġmoon": 2398,
      "elly": 2399,
      "Ġtea": 2400,
      "aking": 2401,
      "Ġsharing": 2402,
      "getable": 2403,
      "most": 2404,
      "Ġcarrots": 2405,
      "Ġknocked": 2406,
      "Ġmeadow": 2407,
      "Ġvegetable": 2408,
      "ĠDon": 2409,
      "Ġdisappoin": 2410,
      "Ġwhis": 2411,
      "ying": 2412,
      "Ġstood": 2413,
      "Ġsuccess": 2414,
      "ĠEven": 2415,
      "ĠWhile": 2416,
      "Ġplate": 2417,
      "Ġgener": 2418,
      "Ġmeant": 2419,
      "Ġbal": 2420,
      "Ġbreath": 2421,
      "Ġsour": 2422,
      "Ġlegs": 2423,
      "Ġtightly": 2424,
      "Ġalmost": 2425,
      "Ġgray": 2426,
      "Ġashamed": 2427,
      "ned": 2428,
      "Ġemp": 2429,
      "Ġempty": 2430,
      "ĠZ": 2431,
      "Ġgrew": 2432,
      "Ġpillow": 2433,
      "ĠBo": 2434,
      "dle": 2435,
      "Ġtells": 2436,
      "Ġgas": 2437,
      "ground": 2438,
      "Ġsplash": 2439,
      "ony": 2440,
      "Ġwhistle": 2441,
      "Ġunderstood": 2442,
      "ian": 2443,
      "Ġber": 2444,
      "Ġcarried": 2445,
      "den": 2446,
      "Ġsheep": 2447,
      "Ġyelled": 2448,
      "ĠWhy": 2449,
      "Ġlem": 2450,
      "Ġpolice": 2451,
      "arl": 2452,
      "ustr": 2453,
      "Ġsave": 2454,
      "Ġnods": 2455,
      "vous": 2456,
      "Ġhours": 2457,
      "ital": 2458,
      "Ġnut": 2459,
      "Ġsnacks": 2460,
      "Ġjew": 2461,
      "hin": 2462,
      "Ġdisappointed": 2463,
      "Ġthese": 2464,
      "ets": 2465,
      "Ġhosp": 2466,
      "Ġsparkly": 2467,
      "Ġhospital": 2468,
      "Ġgold": 2469,
      "ork": 2470,
      "Where": 2471,
      "Ġkitten": 2472,
      "erp": 2473,
      "urse": 2474,
      "ina": 2475,
      "Ġline": 2476,
      "Ġpay": 2477,
      "Ġbored": 2478,
      "Ġship": 2479,
      "Ġfrustr": 2480,
      "Ġhidden": 2481,
      "Ġgenerous": 2482,
      "Ġtest": 2483,
      "Ġtaught": 2484,
      "ĠLeo": 2485,
      "Ġscarf": 2486,
      "Ġstanding": 2487,
      "Ġchew": 2488,
      "Ġrad": 2489,
      "iff": 2490,
      "Ġpizz": 2491,
      "Ġknowing": 2492,
      "Ġminutes": 2493,
      "Ġhur": 2494,
      "Ġblow": 2495,
      "Ġplants": 2496,
      "Ġgroup": 2497,
      "Ġreturned": 2498,
      "Ġbedroom": 2499,
      "Ġeasy": 2500,
      "Ġpolite": 2501,
      "Ġwaves": 2502,
      "Ġshore": 2503,
      "Ġsighed": 2504,
      "Ġwolf": 2505,
      "Ġpri": 2506,
      "Ġmysterious": 2507,
      "Ġseed": 2508,
      "Ġglass": 2509,
      "fl": 2510,
      "ĠRex": 2511,
      "Ġdetermined": 2512,
      "Ġpuzzle": 2513,
      "Ġseek": 2514,
      "ĠMark": 2515,
      "Stop": 2516,
      "Ġner": 2517,
      "Ġpowerful": 2518,
      "Ġthankful": 2519,
      "Ġsandwich": 2520,
      "kin": 2521,
      "Ġpassed": 2522,
      "Ġclass": 2523,
      "ĠBl": 2524,
      "Ġdrew": 2525,
      "Ġsleepy": 2526,
      "Ġfig": 2527,
      "'d": 2528,
      "Ġprince": 2529,
      "Ġpir": 2530,
      "Ġfinger": 2531,
      "ĠBr": 2532,
      "Ġnervous": 2533,
      "Ġpizza": 2534,
      "Ġmatch": 2535,
      "ĠSusie": 2536,
      "Ġfrustrated": 2537,
      "Ġspicy": 2538,
      "Ġfancy": 2539,
      "Ġgate": 2540,
      "Ġspoil": 2541,
      "osaur": 2542,
      "Ġgun": 2543,
      "Ġmessy": 2544,
      "Ġsold": 2545,
      "af": 2546,
      "Ġkissed": 2547,
      "Ġcloset": 2548,
      "Ġfear": 2549,
      "Ġjelly": 2550,
      "Ġfeed": 2551,
      "Ġlock": 2552,
      "Ġtick": 2553,
      "Ġbridge": 2554,
      "work": 2555,
      "aul": 2556,
      "Ġav": 2557,
      "Ġgathered": 2558,
      "Ġreg": 2559,
      "Ġcirc": 2560,
      "Ġexcite": 2561,
      "Ġmot": 2562,
      "ote": 2563,
      "Ġwis": 2564,
      "Ġesc": 2565,
      "Ġhang": 2566,
      "Ġflag": 2567,
      "oop": 2568,
      "Ġpoor": 2569,
      "issors": 2570,
      "Ġgrumpy": 2571,
      "uce": 2572,
      "Ġcaterp": 2573,
      "Ġdinosaur": 2574,
      "Ġcaterpill": 2575,
      "ella": 2576,
      "Ġyourself": 2577,
      "Ġvan": 2578,
      "iddle": 2579,
      "Ġpin": 2580,
      "Ġanswered": 2581,
      "ano": 2582,
      "Ġweek": 2583,
      "Ġcries": 2584,
      "Are": 2585,
      "Ġoften": 2586,
      "selves": 2587,
      "Ġscissors": 2588,
      "Ġtwirl": 2589,
      "Ġchest": 2590,
      "itter": 2591,
      "Ġhopping": 2592,
      "Sorry": 2593,
      "Ġug": 2594,
      "pack": 2595,
      "sist": 2596,
      "Ġmummy": 2597,
      "ĠToday": 2598,
      "Ġdeer": 2599,
      "Ġtears": 2600,
      "Ben": 2601,
      "mb": 2602,
      "Ġugly": 2603,
      "ĠDan": 2604,
      "ensive": 2605,
      "Ġdrop": 2606,
      "illed": 2607,
      "izzy": 2608,
      "Ġburn": 2609,
      "era": 2610,
      "Ġexcitement": 2611,
      "Ġexpensive": 2612,
      "Ġcand": 2613,
      "Ġfil": 2614,
      "Ġlit": 2615,
      "Ġsaved": 2616,
      "Ġworking": 2617,
      "Ġmiddle": 2618,
      "Ġtaken": 2619,
      "Ġcaterpillar": 2620,
      "Ġok": 2621,
      "Ġscr": 2622,
      "Ġtrue": 2623,
      "Ġpleased": 2624,
      "Ġwagged": 2625,
      "Ġones": 2626,
      "Ġboring": 2627,
      "Ġspend": 2628,
      "que": 2629,
      "Ġvase": 2630,
      "Ġcrown": 2631,
      "oof": 2632,
      "Ġleg": 2633,
      "Ġpicks": 2634,
      "Ġtie": 2635,
      "ĠBobby": 2636,
      "Ġasking": 2637,
      "ugar": 2638,
      "Ġvegetables": 2639,
      "ual": 2640,
      "Ġtent": 2641,
      "body": 2642,
      "Ġbrush": 2643,
      "ecially": 2644,
      "ete": 2645,
      "ates": 2646,
      "Who": 2647,
      "Ġgiggled": 2648,
      "Ġmistake": 2649,
      "Ġboss": 2650,
      "Ġgets": 2651,
      "Ġcage": 2652,
      "ser": 2653,
      "Ġcap": 2654,
      "Ġcomfortable": 2655,
      "light": 2656,
      "Ġknight": 2657,
      "pecially": 2658,
      "Ġespecially": 2659,
      "Ġpacked": 2660,
      "Ġmir": 2661,
      "Ġdancing": 2662,
      "Ġsugar": 2663,
      "Ġstuff": 2664,
      "Ġwander": 2665,
      "Ġnumber": 2666,
      "Ġeld": 2667,
      "Ġpress": 2668,
      "Ġsight": 2669,
      "Ġrocket": 2670,
      "Ġclown": 2671,
      "Ġmedic": 2672,
      "iness": 2673,
      "ots": 2674,
      "ggs": 2675,
      "ĠEventually": 2676,
      "Ġfruits": 2677,
      "Ġdrum": 2678,
      "Ġeggs": 2679,
      "Ġlying": 2680,
      "Ġdest": 2681,
      "ĠMandy": 2682,
      "Ġfake": 2683,
      "Ġpus": 2684,
      "aged": 2685,
      "Ġdistance": 2686,
      "Ġbone": 2687,
      "Ġflut": 2688,
      "Ġglue": 2689,
      "Ġwalks": 2690,
      "Ġsplashed": 2691,
      "ĠNo": 2692,
      "ĠBlue": 2693,
      "Ġmedicine": 2694,
      "ror": 2695,
      "ĠU": 2696,
      "Ġdrawing": 2697,
      "Ġsweetie": 2698,
      "Ġbake": 2699,
      "Ġmoving": 2700,
      "Ġdisappeared": 2701,
      "Ġlead": 2702,
      "ĠKitty": 2703,
      "Ġsmelly": 2704,
      "ĠOK": 2705,
      "Ġmov": 2706,
      "Ġpray": 2707,
      "Ġbecome": 2708,
      "Ġclap": 2709,
      "Ġlemon": 2710,
      "Ġchange": 2711,
      "Ġfeathers": 2712,
      "ha": 2713,
      "Ġlose": 2714,
      "Ġlicked": 2715,
      "Ġmoms": 2716,
      "Ġdogs": 2717,
      "Ġcalling": 2718,
      "ĠPete": 2719,
      "ĠIf": 2720,
      "ory": 2721,
      "Ġtwist": 2722,
      "Ġroar": 2723,
      "ĠFred": 2724,
      "Ġlazy": 2725,
      "Ġplayground": 2726,
      "Ġincred": 2727,
      "Ġbathroom": 2728,
      "Ġfis": 2729,
      "yal": 2730,
      "Ġweak": 2731,
      "Now": 2732,
      "?\".": 2733,
      "Ġgar": 2734,
      "Ġhorn": 2735,
      "Ġelderly": 2736,
      "Ġcrack": 2737,
      "Ġcri": 2738,
      "Ġbody": 2739,
      "Ġexam": 2740,
      "Ġwrote": 2741,
      "Ġext": 2742,
      "Ġadd": 2743,
      "Ġyours": 2744,
      "Ġfather": 2745,
      "Ġquestions": 2746,
      "Ġmic": 2747,
      "Ġnod": 2748,
      "Ġnoisy": 2749,
      "ating": 2750,
      "eez": 2751,
      "uggest": 2752,
      "elp": 2753,
      ",âĢĿ": 2754,
      "Ġskipped": 2755,
      "Ġmirror": 2756,
      "Ġsuggest": 2757,
      "Ġed": 2758,
      "Ġyog": 2759,
      "Ġfluffy": 2760,
      "Ġwheel": 2761,
      "Ġeager": 2762,
      "ĠEllie": 2763,
      "Ġfamous": 2764,
      "Ġclear": 2765,
      "Ġlamp": 2766,
      "Ġdrank": 2767,
      "Ġdig": 2768,
      "Ġdish": 2769,
      "ination": 2770,
      "Ġstones": 2771,
      "Ġtape": 2772,
      "Ġloyal": 2773,
      "Ġincredible": 2774,
      "ĠEnd": 2775,
      "Ġmarch": 2776,
      "ti": 2777,
      "Ġord": 2778,
      "Ġcontent": 2779,
      "Ġrare": 2780,
      "Ġruined": 2781,
      "Ġrich": 2782,
      "Ġsell": 2783,
      "Ġqueen": 2784,
      "land": 2785,
      "Ġshows": 2786,
      "Ġballs": 2787,
      "Ġfigure": 2788,
      "Ġglow": 2789,
      "Ġcheck": 2790,
      "Ġrelax": 2791,
      "Ġrid": 2792,
      "Ġjuicy": 2793,
      "Ġcovered": 2794,
      "Ġmap": 2795,
      "Ġsoap": 2796,
      "Ġind": 2797,
      "hip": 2798,
      "Ġsailed": 2799,
      "illi": 2800,
      "Ġshoot": 2801,
      "Ġaw": 2802,
      "ately": 2803,
      "Ġteam": 2804,
      "Ġrealised": 2805,
      "Ġdecide": 2806,
      "Ġdiscovered": 2807,
      "umbled": 2808,
      "Ġmeasure": 2809,
      "Ġcoins": 2810,
      "cept": 2811,
      "Ġneeds": 2812,
      "ĠElla": 2813,
      "Ġstraw": 2814,
      "Ġtowel": 2815,
      "Ġborrow": 2816,
      "fic": 2817,
      "Ġadventur": 2818,
      "Ġcleaned": 2819,
      "Ġboys": 2820,
      "Ġswan": 2821,
      "Ġextra": 2822,
      "Ġbranches": 2823,
      "Help": 2824,
      "asing": 2825,
      "Ġmod": 2826,
      "ĠBella": 2827,
      "Be": 2828,
      "imp": 2829,
      "Ġoffered": 2830,
      "Ġboard": 2831,
      "Ġjoke": 2832,
      "Well": 2833,
      "ĠMar": 2834,
      "Ġtiger": 2835,
      "Ġtag": 2836,
      "Ġdiffic": 2837,
      "Ġadventurous": 2838,
      "Ġbarn": 2839,
      "Ġchicken": 2840,
      "Ġham": 2841,
      "Ġfine": 2842,
      "Ġmotor": 2843,
      "Ġbubbles": 2844,
      "ique": 2845,
      "keep": 2846,
      "Ġbalance": 2847,
      "Ġlifted": 2848,
      "Ġcolourful": 2849,
      "Ġfrown": 2850,
      "Ġeye": 2851,
      "Ġdolp": 2852,
      "ĠRose": 2853,
      "ĠBrown": 2854,
      "Ġturt": 2855,
      "Ġdifficult": 2856,
      "Ġbottom": 2857,
      "Ġorganized": 2858,
      "Ġthick": 2859,
      "Ġtoug": 2860,
      "Ġtrack": 2861,
      "Ġunique": 2862,
      "rag": 2863,
      "Ġknife": 2864,
      "alous": 2865,
      "Ġcover": 2866,
      "Ġhappening": 2867,
      "Ġjealous": 2868,
      "Ġhose": 2869,
      "port": 2870,
      "Ġgarage": 2871,
      "Ġfright": 2872,
      "Ġweird": 2873,
      "ĠBobo": 2874,
      "Ġmanaged": 2875,
      "Ġonce": 2876,
      "Ġhurts": 2877,
      "ject": 2878,
      "Ġisland": 2879,
      "imed": 2880,
      "ĠMrs": 2881,
      "Ġword": 2882,
      "ĠFr": 2883,
      "cil": 2884,
      "Ġlearning": 2885,
      "Ġcrawled": 2886,
      "Ġcircle": 2887,
      "Ġpencil": 2888,
      "Ġarg": 2889,
      "Ġkindness": 2890,
      "Ġcost": 2891,
      "Ġsaying": 2892,
      "Ġbald": 2893,
      "Ġballoons": 2894,
      "Ġberries": 2895,
      "ĠMike": 2896,
      "ured": 2897,
      "olog": 2898,
      "Ġtough": 2899,
      "Me": 2900,
      "Ġfavour": 2901,
      "Ġpointing": 2902,
      "Ġlouder": 2903,
      "Ġchase": 2904,
      "lies": 2905,
      "ready": 2906,
      "Ġsil": 2907,
      "Ġmighty": 2908,
      "Ġter": 2909,
      "Ġwand": 2910,
      "Ġjewel": 2911,
      "ĠDave": 2912,
      "Ġshake": 2913,
      "ages": 2914,
      "iv": 2915,
      "keeper": 2916,
      "ddy": 2917,
      "ipper": 2918,
      "Ġharder": 2919,
      "alk": 2920,
      "Ġapolog": 2921,
      "Ġedge": 2922,
      "Ġspun": 2923,
      "Ġfour": 2924,
      "Ġbatter": 2925,
      "Ġunus": 2926,
      "Ġadded": 2927,
      "head": 2928,
      "Ġguess": 2929,
      "Ġalready": 2930,
      "Ġhunt": 2931,
      "Ġfavourite": 2932,
      "Ġdizzy": 2933,
      "ĠTweety": 2934,
      "Ġnorm": 2935,
      "Ġunusual": 2936,
      "Ġang": 2937,
      "Ġguit": 2938,
      "ipp": 2939,
      "Ġwhale": 2940,
      "rage": 2941,
      "Ġvalu": 2942,
      "Ġlibr": 2943,
      "Ġfool": 2944,
      "ĠGrandpa": 2945,
      "Ġenjoying": 2946,
      "Ġbelonged": 2947,
      "Ġwrapped": 2948,
      "aw": 2949,
      "Ġhats": 2950,
      "Ġcheerful": 2951,
      "Ġgrace": 2952,
      "Ġtrucks": 2953,
      "Ġstrawber": 2954,
      "Ġmarket": 2955,
      "Ġsmoke": 2956,
      "Ġimpressed": 2957,
      "Ġrecord": 2958,
      "uggled": 2959,
      "Ġpump": 2960,
      "Ġsword": 2961,
      "Ġgiving": 2962,
      "Ġtrunk": 2963,
      "Ġlaughs": 2964,
      "Ġgrown": 2965,
      "anged": 2966,
      "Ġnormal": 2967,
      "Ġref": 2968,
      "Ġgrand": 2969,
      "Ġbanana": 2970,
      "ĠSoph": 2971,
      "Ġears": 2972,
      "Ġboxes": 2973,
      "illiant": 2974,
      "Ġhero": 2975,
      "Ġloudly": 2976,
      "Ġharm": 2977,
      "ola": 2978,
      "Ġturtle": 2979,
      "Ġscare": 2980,
      "Ġproudly": 2981,
      "Ġbrilliant": 2982,
      "Ġguitar": 2983,
      "ilt": 2984,
      "Ġbrothers": 2985,
      "Ġchoose": 2986,
      "ature": 2987,
      "Ġcircles": 2988,
      "Here": 2989,
      "Ġwhisp": 2990,
      "Ġterri": 2991,
      "Tim": 2992,
      "Ġdreamed": 2993,
      "Ġcab": 2994,
      "Ġescape": 2995,
      "ery": 2996,
      "Ġskin": 2997,
      "Ġagainst": 2998,
      "ym": 2999,
      "Ġbossy": 3000,
      "Ġpil": 3001,
      "Ġinvited": 3002,
      "Ġhelps": 3003,
      "cient": 3004,
      "Ġpainting": 3005,
      "Ġcompet": 3006,
      "Ġaccept": 3007,
      "gy": 3008,
      "Ġfrightened": 3009,
      "Ġmelt": 3010,
      "Ġgoat": 3011,
      "fast": 3012,
      "Ġcabin": 3013,
      "Ġpee": 3014,
      "Ġmeans": 3015,
      "Ġdepend": 3016,
      "Ġsafely": 3017,
      "Ġslipped": 3018,
      "Ġstream": 3019,
      "Ġwrap": 3020,
      "Ġbuttons": 3021,
      "Ġhappiness": 3022,
      "Ġlog": 3023,
      "Ġbirdie": 3024,
      "Ġstubb": 3025,
      "ipe": 3026,
      "Ġcrayon": 3027,
      "Ġvaluable": 3028,
      "Ġdesign": 3029,
      "Ġbreakfast": 3030,
      "erry": 3031,
      "Ġwake": 3032,
      "Ġwalls": 3033,
      "Ġclay": 3034,
      "Ġflash": 3035,
      "Ġancient": 3036,
      "Ġjack": 3037,
      "ouses": 3038,
      "Ġstudy": 3039,
      "orge": 3040,
      "ĠMy": 3041,
      "edient": 3042,
      "Ġsuccessful": 3043,
      "Ġfridge": 3044,
      "emo": 3045,
      "Ġknows": 3046,
      "Ġtoast": 3047,
      "Ġfoolish": 3048,
      "ĠLola": 3049,
      "ye": 3050,
      "ĠNemo": 3051,
      "Ġmovie": 3052,
      "Ġstubborn": 3053,
      "Ġunl": 3054,
      "Ġfalls": 3055,
      "Ġnicely": 3056,
      "Ġlean": 3057,
      "ĠGe": 3058,
      "Ġrough": 3059,
      "omed": 3060,
      "atch": 3061,
      "Ġfier": 3062,
      "apping": 3063,
      "ado": 3064,
      "Ġbloom": 3065,
      "Ġdreams": 3066,
      "Ġshape": 3067,
      "Ġcudd": 3068,
      "Ġcity": 3069,
      "Ġoffice": 3070,
      "Ġnosy": 3071,
      "Ġhouses": 3072,
      "Ġspace": 3073,
      "Ġtomato": 3074,
      "Ġdelicate": 3075,
      "Ġfierce": 3076,
      "Ġfat": 3077,
      "Ġobedient": 3078,
      "Ġgrandpa": 3079,
      "az": 3080,
      "Ġicy": 3081,
      "Ġwagon": 3082,
      "laimed": 3083,
      "Ġshark": 3084,
      "Ġcompetit": 3085,
      "Ġdead": 3086,
      "Ġcher": 3087,
      "Ġkinds": 3088,
      "Ġmixed": 3089,
      "Ġsuggested": 3090,
      "Ġnotice": 3091,
      "Ġpoured": 3092,
      "Ġmem": 3093,
      "Ġexclaimed": 3094,
      "pes": 3095,
      "Ġuseful": 3096,
      "Ġwiped": 3097,
      "Ġlocked": 3098,
      "Ġegg": 3099,
      "Ġshells": 3100,
      "Ġaunt": 3101,
      "uth": 3102,
      "Ġstri": 3103,
      "Ġthu": 3104,
      "Ġtools": 3105,
      "Ġsounded": 3106,
      "Ġexcitedly": 3107,
      "Ġlights": 3108,
      "Ġexplored": 3109,
      "Ġfrag": 3110,
      "Ġstove": 3111,
      "wards": 3112,
      "!\".": 3113,
      "Ġson": 3114,
      "Ġrose": 3115,
      "Ġtimes": 3116,
      "oppy": 3117,
      "Ġshadow": 3118,
      "Ġbags": 3119,
      "oot": 3120,
      "Ġenc": 3121,
      "ention": 3122,
      "Ġthemselves": 3123,
      "ĠGeorge": 3124,
      "Ġfountain": 3125,
      "arry": 3126,
      "Ġbushes": 3127,
      "Ġlow": 3128,
      "Ġabove": 3129,
      "Ġspoiled": 3130,
      "dom": 3131,
      "Ġstumbled": 3132,
      "Ġshowing": 3133,
      "Ġlab": 3134,
      "Ġweal": 3135,
      "Ġfingers": 3136,
      "Ġperform": 3137,
      "Ġcro": 3138,
      "Ġresc": 3139,
      "vice": 3140,
      "ĠDucky": 3141,
      "Ġwitch": 3142,
      "Ġsmaller": 3143,
      "Ġthoughtful": 3144,
      "Ġfragile": 3145,
      "rell": 3146,
      "kn": 3147,
      "na": 3148,
      "Ġdough": 3149,
      "Ġdependable": 3150,
      "Ġindepend": 3151,
      "ache": 3152,
      "ĠWhenever": 3153,
      "Ġjog": 3154,
      "corn": 3155,
      "Ġseem": 3156,
      "Ġclock": 3157,
      "Ġraced": 3158,
      "Ġhelm": 3159,
      "ray": 3160,
      "Ġspinning": 3161,
      "inal": 3162,
      "Ġstretch": 3163,
      "Ġsunfl": 3164,
      "Ġbrightly": 3165,
      "arth": 3166,
      "Ġrode": 3167,
      "ines": 3168,
      "Ġprint": 3169,
      "Ġplayful": 3170,
      "Ġlaw": 3171,
      "Ġeng": 3172,
      "Ġtele": 3173,
      "ĠSn": 3174,
      "Ġbuilt": 3175,
      "Ġdelighted": 3176,
      "Ġjam": 3177,
      "Ġkicked": 3178,
      "ormous": 3179,
      "Ġcounted": 3180,
      "Ġroof": 3181,
      "Ġswe": 3182,
      "Ġshone": 3183,
      "Ġadmired": 3184,
      "Ġenormous": 3185,
      "ĠCl": 3186,
      "Ġchanged": 3187,
      "Ġways": 3188,
      "Ġorig": 3189,
      "Ġparrot": 3190,
      "Ġcop": 3191,
      "Ġreminded": 3192,
      "reen": 3193,
      "Ġpractice": 3194,
      "ither": 3195,
      "Ġacorn": 3196,
      "ĠBill": 3197,
      "ĠYour": 3198,
      "Ġzip": 3199,
      "Ġcam": 3200,
      "Ġrat": 3201,
      "ience": 3202,
      "eeze": 3203,
      "Ġsniff": 3204,
      "Ġtwig": 3205,
      "Ġindependent": 3206,
      "Ġjolly": 3207,
      "Ġhanded": 3208,
      "Ġchir": 3209,
      "Ġusing": 3210,
      "anut": 3211,
      "Ġwhispered": 3212,
      "Ġhoop": 3213,
      "Ġcone": 3214,
      "Ġchose": 3215,
      "Ġtummy": 3216,
      "Ġbitter": 3217,
      "known": 3218,
      "Ġboats": 3219,
      "Ġtunn": 3220,
      "Ġsolve": 3221,
      "Ġstronger": 3222,
      "Ġbees": 3223,
      "Ġpopcorn": 3224,
      "Ġoriginal": 3225,
      "Ġloll": 3226,
      "Ġsteal": 3227,
      "Ġhammer": 3228,
      "Ġbeak": 3229,
      "Ġterrible": 3230,
      "ict": 3231,
      "mbrell": 3232,
      "Ġfre": 3233,
      "Ġumbrell": 3234,
      "ipop": 3235,
      "Ġallowed": 3236,
      "Ġsauce": 3237,
      "Ġhairy": 3238,
      "Ġpainted": 3239,
      "Ġserious": 3240,
      "Ġmis": 3241,
      "Ġmoder": 3242,
      "Ġcleaning": 3243,
      "iable": 3244,
      "ĠToby": 3245,
      "Ġlollipop": 3246,
      "Ġdust": 3247,
      "Ġjoined": 3248,
      "het": 3249,
      "Ġguard": 3250,
      "Ġbrace": 3251,
      "Ġgasped": 3252,
      "Ġleaving": 3253,
      "Ġunknown": 3254,
      "Ġfinding": 3255,
      "anger": 3256,
      "Ġsalad": 3257,
      "Ġbump": 3258,
      "Ġhalf": 3259,
      "iew": 3260,
      "Ġmetal": 3261,
      "inary": 3262,
      "Ġclum": 3263,
      "Ġpicking": 3264,
      "Ġpotato": 3265,
      "Ġdove": 3266,
      "uring": 3267,
      "Ġtank": 3268,
      "Ġbean": 3269,
      "Ġyet": 3270,
      "ĠJoey": 3271,
      "Ġdolphin": 3272,
      "Ġbounce": 3273,
      "Ġtor": 3274,
      "Ġpost": 3275,
      "aghet": 3276,
      "aghetti": 3277,
      "Ġreliable": 3278,
      "Ġcostum": 3279,
      "Ġstamp": 3280,
      "Ġsink": 3281,
      "robe": 3282,
      "amond": 3283,
      "Ġpumpkin": 3284,
      "Ġview": 3285,
      "Ġdoesn": 3286,
      "com": 3287,
      "Ġthose": 3288,
      "ĠKim": 3289,
      "Ġforth": 3290,
      "pid": 3291,
      "Ġrubb": 3292,
      "Ġbarber": 3293,
      "Ġadvice": 3294,
      "Ġhay": 3295,
      "Ġgem": 3296,
      "Ġmodern": 3297,
      "Ġdiamond": 3298,
      "gu": 3299,
      "Ġing": 3300,
      "Ġthinking": 3301,
      "Ġholds": 3302,
      "ĠPe": 3303,
      "ugged": 3304,
      "ebra": 3305,
      "Ġyarn": 3306,
      "Ġspaghetti": 3307,
      "Ġclumsy": 3308,
      "Ġingred": 3309,
      "Ġingredient": 3310,
      "How": 3311,
      "Ġstupid": 3312,
      "Ġsearching": 3313,
      "Ġcheap": 3314,
      "Ġcreate": 3315,
      "Ġprep": 3316,
      "Ġrushed": 3317,
      "Ġregular": 3318,
      "See": 3319,
      "Ġmarble": 3320,
      "Ġwealthy": 3321,
      "ilty": 3322,
      "Ġpatch": 3323,
      "Ġstairs": 3324,
      "Ġpirate": 3325,
      "Ġtelling": 3326,
      "Ġsleeping": 3327,
      "Ġguilty": 3328,
      "Ġpeanut": 3329,
      "Ġchar": 3330,
      "cu": 3331,
      "ations": 3332,
      "Ġmagn": 3333,
      "Ġgoose": 3334,
      "ĠRo": 3335,
      "Ġrub": 3336,
      "Ġcompass": 3337,
      "ĠSophie": 3338,
      "Ġflex": 3339,
      "Ġopens": 3340,
      "Ġzebra": 3341,
      "Ġmask": 3342,
      "Ġsquare": 3343,
      "Ġstat": 3344,
      "Ġarrow": 3345,
      "ĠPolly": 3346,
      "Ġengine": 3347,
      "Ġthunder": 3348,
      "io": 3349,
      "ĠAndy": 3350,
      "irsty": 3351,
      "Ġcrazy": 3352,
      "Ġknock": 3353,
      "eezed": 3354,
      "ĠBa": 3355,
      "illa": 3356,
      "ĠBear": 3357,
      "Ġshiver": 3358,
      "Ġgraceful": 3359,
      "Ġcur": 3360,
      "Ġmeal": 3361,
      "Ġangel": 3362,
      "umbers": 3363,
      "Ġstage": 3364,
      "Ġbull": 3365,
      "Ġcarrying": 3366,
      "Ġcamera": 3367,
      "Ġpopular": 3368,
      "Ġdriving": 3369,
      "ĠAlex": 3370,
      "shion": 3371,
      "Ġdull": 3372,
      "Ġbeet": 3373,
      "Ġmissing": 3374,
      "Ġsparkled": 3375,
      "Ġseeds": 3376,
      "Ġfriendship": 3377,
      "Go": 3378,
      "fa": 3379,
      "Ġwashed": 3380,
      "Ġumbrella": 3381,
      "Ġtied": 3382,
      "Ġtruth": 3383,
      "Ġimpressive": 3384,
      "Ġdeliver": 3385,
      "Ġpebble": 3386,
      "time": 3387,
      "Ġcomb": 3388,
      "Ġfresh": 3389,
      "isk": 3390,
      "Ġimagined": 3391,
      "Ġlibrary": 3392,
      "Ġsne": 3393,
      "Ġshel": 3394,
      "cod": 3395,
      "Ġflexible": 3396,
      "Ġpatter": 3397,
      "Ġcareless": 3398,
      "Ġdreaming": 3399,
      "Ġdestro": 3400,
      "Ġreward": 3401,
      "Ġnature": 3402,
      "Ġending": 3403,
      "ric": 3404,
      "Ġpersist": 3405,
      "Ġprize": 3406,
      "Ġhandle": 3407,
      "ief": 3408,
      "Ġingredients": 3409,
      "Ġpige": 3410,
      "ision": 3411,
      "Ġshocked": 3412,
      "Ġrubbed": 3413,
      "Ġload": 3414,
      "Ġsudden": 3415,
      "Ġpattern": 3416,
      "Ġenth": 3417,
      "Ġjacket": 3418,
      "Ġstranger": 3419,
      "Ġsadly": 3420,
      "oomy": 3421,
      "Ġthirsty": 3422,
      "ibb": 3423,
      "Ġcompassion": 3424,
      "ĠNext": 3425,
      "Ġencou": 3426,
      "arsh": 3427,
      "ĠCharl": 3428,
      "Ġenthus": 3429,
      "If": 3430,
      "Ġenvel": 3431,
      "Ġwheels": 3432,
      "Ġmailbox": 3433,
      "Ġfork": 3434,
      "ement": 3435,
      "Ġsuit": 3436,
      "Ġdesk": 3437,
      "ince": 3438,
      "Ġnumbers": 3439,
      "Ġearly": 3440,
      "Ġreading": 3441,
      "Ġcrocod": 3442,
      "Ġtem": 3443,
      "Ġpeeked": 3444,
      "Ġflashlight": 3445,
      "Ġwire": 3446,
      "Ġdiscover": 3447,
      "Ġspilled": 3448,
      "Ġbutterflies": 3449,
      "Ġpenny": 3450,
      "Ġtorn": 3451,
      "Ġcryst": 3452,
      "awn": 3453,
      "comfort": 3454,
      "Ġenv": 3455,
      "Ġrece": 3456,
      "Ġsunflower": 3457,
      "loo": 3458,
      "Ġahead": 3459,
      "Ġobject": 3460,
      "Ġstops": 3461,
      "bled": 3462,
      "Ġorder": 3463,
      "Ġspring": 3464,
      "Ġavo": 3465,
      "Ġsorts": 3466,
      "ĠPaul": 3467,
      "ellig": 3468,
      "Ġgum": 3469,
      "Ġuncomfort": 3470,
      "Ġwing": 3471,
      "Ġcomput": 3472,
      "Ġrug": 3473,
      "Ġuncomfortable": 3474,
      "Ġcere": 3475,
      "Ġanx": 3476,
      "Ġtowers": 3477,
      "Ġpengu": 3478,
      "Ġwarned": 3479,
      "Ġintellig": 3480,
      "Ġbent": 3481,
      "Ġbracelet": 3482,
      "oe": 3483,
      "Ġsurf": 3484,
      "Ġnote": 3485,
      "Ġwindows": 3486,
      "Ġtravel": 3487,
      "gest": 3488,
      "Ġspoke": 3489,
      "Yay": 3490,
      "Ġpup": 3491,
      "Ġhumble": 3492,
      "Ġpow": 3493,
      "There": 3494,
      "Ġearth": 3495,
      "Ġplaced": 3496,
      "Ġpant": 3497,
      "Ġsuper": 3498,
      "Ġbadly": 3499,
      "Ġflute": 3500,
      "iches": 3501,
      "Ġpale": 3502,
      "ikes": 3503,
      "Ġanxious": 3504,
      "Ġscale": 3505,
      "Ġscoot": 3506,
      "Ġbiggest": 3507,
      "Ġcomplet": 3508,
      "Ġolder": 3509,
      "Ġgrowing": 3510,
      "Ġcooking": 3511,
      "Ġtrap": 3512,
      "Ġslides": 3513,
      "Ġcompl": 3514,
      "Ġliz": 3515,
      "Ġcounting": 3516,
      "Ġmush": 3517,
      "Ow": 3518,
      "Ġstack": 3519,
      "host": 3520,
      "Ġtunnel": 3521,
      "Ġcelebrate": 3522,
      "Ġstatue": 3523,
      "Ġbeetle": 3524,
      "Ġsofa": 3525,
      "They": 3526,
      "Ġscatter": 3527,
      "ĠHere": 3528,
      "Ġdeaf": 3529,
      "Ġperm": 3530,
      "Ġbeauty": 3531,
      "Ġharmless": 3532,
      "Ġmole": 3533,
      "Ġmel": 3534,
      "Ġcupboard": 3535,
      "Ġnail": 3536,
      "Ġvalue": 3537,
      "ĠPat": 3538,
      "Ġnurse": 3539,
      "Ġghost": 3540,
      "Ġer": 3541,
      "Ġshut": 3542,
      "ĠGive": 3543,
      "Ġrefused": 3544,
      "Ġpersistent": 3545,
      "Ġcharming": 3546,
      "Ġhung": 3547,
      "Ġjumps": 3548,
      "Ġgifted": 3549,
      "Ġneat": 3550,
      "Ġcourage": 3551,
      "Ġtrick": 3552,
      "Ġpretending": 3553,
      "Ġnames": 3554,
      "Ġcrane": 3555,
      "cream": 3556,
      "Ġyawn": 3557,
      "opus": 3558,
      "ctopus": 3559,
      "Ġcereal": 3560,
      "Ġcurt": 3561,
      "ices": 3562,
      "Ġflour": 3563,
      "Ġbase": 3564,
      "Ġdestroy": 3565,
      "Ġchasing": 3566,
      "ĠUn": 3567,
      "Ġcrocodile": 3568,
      "Ġsandwiches": 3569,
      "Ġordinary": 3570,
      "Ġraven": 3571,
      "Ġcurtain": 3572,
      "Ġsnuggled": 3573,
      "Ġsett": 3574,
      "Ġsupport": 3575,
      "Ġtur": 3576,
      "Ġpony": 3577,
      "aid": 3578,
      "ud": 3579,
      "ĠLook": 3580,
      "Ġquestion": 3581,
      "ĠHen": 3582,
      "Ġuniver": 3583,
      "Ġlively": 3584,
      "Ġtriang": 3585,
      "Ġrules": 3586,
      "Ġattract": 3587,
      "Ġsend": 3588,
      "Ġenvelope": 3589,
      "Ġcamp": 3590,
      "aches": 3591,
      "Ġuncle": 3592,
      "Ġcartoon": 3593,
      "Ġoctopus": 3594,
      "Ġdrawer": 3595,
      "Ġcrawl": 3596,
      "ips": 3597,
      "Ġvi": 3598,
      "Ġmay": 3599,
      "Ġcomputer": 3600,
      "Ġintelligent": 3601,
      "Ġmushroom": 3602,
      "Ġgloomy": 3603,
      "Ġblueber": 3604,
      "Ġfu": 3605,
      "Ġshaking": 3606,
      "stri": 3607,
      "Ġspeed": 3608,
      "He": 3609,
      "Ġpiano": 3610,
      "Ġparade": 3611,
      "Ġlizard": 3612,
      "Ġcollar": 3613,
      "Ġhelmet": 3614,
      "Ġcrystal": 3615,
      "Ġpepper": 3616,
      "Ġcreatures": 3617,
      "heart": 3618,
      "Ġthief": 3619,
      "Ġtwirled": 3620,
      "Ġturkey": 3621,
      "Ġhurry": 3622,
      "aff": 3623,
      "Ġneedle": 3624,
      "Ġpackage": 3625,
      "orant": 3626,
      "Ġsoldier": 3627,
      "Ġalert": 3628,
      "erable": 3629,
      "ubby": 3630,
      "ĠWill": 3631,
      "Ġmiserable": 3632,
      "gust": 3633,
      "Ġtask": 3634,
      "und": 3635,
      "cut": 3636,
      "Ġfireman": 3637,
      "Ġstation": 3638,
      "Ġbicy": 3639,
      "Ġanywhere": 3640,
      "Ġdisgust": 3641,
      "ceed": 3642,
      "Ġhunter": 3643,
      "Ġdug": 3644,
      "iest": 3645,
      "ĠAnnie": 3646,
      "Ġener": 3647,
      "ĠCharlie": 3648,
      "Ġcarp": 3649,
      "Ġseal": 3650,
      "ĠGrace": 3651,
      "Ġled": 3652,
      "Ġphot": 3653,
      "Ġwishes": 3654,
      "Ġbandage": 3655,
      "Ġignorant": 3656,
      "Ġresist": 3657,
      "ĠBefore": 3658,
      "Ġbeep": 3659,
      "Ġvide": 3660,
      "Ġmuff": 3661,
      "ses": 3662,
      "ĠHenry": 3663,
      "coa": 3664,
      "Ġpracticed": 3665,
      "Ġtrash": 3666,
      "tter": 3667,
      "Give": 3668,
      "Ġradio": 3669,
      "Ġsecond": 3670,
      "Ġbounced": 3671,
      "Ġshine": 3672,
      "Ġhelpless": 3673,
      "Ġrepe": 3674,
      "Ġscreen": 3675,
      "Ġcube": 3676,
      "Ġstickers": 3677,
      "Ġchance": 3678,
      "ĠBrownie": 3679,
      "Ġpigeon": 3680,
      "Ġleash": 3681,
      "Ġtrump": 3682,
      "Ġattractive": 3683,
      "Ġimpat": 3684,
      "Ġjet": 3685,
      "ummer": 3686,
      "Ġstirred": 3687,
      "ĠSh": 3688,
      "Ġpasta": 3689,
      "Ġstretched": 3690,
      "Ġgir": 3691,
      "Ġletters": 3692,
      "Ġnobody": 3693,
      "ccol": 3694,
      "urb": 3695,
      "ccoli": 3696,
      "Ġcricket": 3697,
      "Ġmill": 3698,
      "ĠTweetie": 3699,
      "ne": 3700,
      "Ġchubby": 3701,
      "Ġtooth": 3702,
      "Ġjeep": 3703,
      "Ġcompassionate": 3704,
      "Ġthread": 3705,
      "ĠJerry": 3706,
      "Ġtire": 3707,
      "Ġbrighter": 3708,
      "Ġimpatient": 3709,
      "Ġclub": 3710,
      "Ġdisturb": 3711,
      "orable": 3712,
      "Ġdecorate": 3713,
      "Ġostri": 3714,
      "Ġsteps": 3715,
      "Ġcocoa": 3716,
      "Ġcompetitive": 3717,
      "Ġjug": 3718,
      "Ġtroubled": 3719,
      "Ġotter": 3720,
      "Ġpressed": 3721,
      "Ġpand": 3722,
      "Ġfurther": 3723,
      "ĠBet": 3724,
      "noon": 3725,
      "ĠTr": 3726,
      "Ġafternoon": 3727,
      "arian": 3728,
      "Ġitself": 3729,
      "Ġtap": 3730,
      "Ġrespectful": 3731,
      "Ġsucceed": 3732,
      "Ġpun": 3733,
      "Ġshoe": 3734,
      "Ġbet": 3735,
      "Ġattic": 3736,
      "Ġrestless": 3737,
      "aked": 3738,
      "aurant": 3739,
      "Ġmug": 3740,
      "olin": 3741,
      "ĠAre": 3742,
      "Ġsomewhere": 3743,
      "Ġdess": 3744,
      "Ġrestaurant": 3745,
      "Ġfort": 3746,
      "stic": 3747,
      "Ġstarts": 3748,
      "Ġribb": 3749,
      "Ġcarpet": 3750,
      "Ġwaff": 3751,
      "Ġshouts": 3752,
      "Ġcase": 3753,
      "ĠLilly": 3754,
      "illie": 3755,
      "Ġcandle": 3756,
      "ĠSandy": 3757,
      "Ġallig": 3758,
      "opter": 3759,
      "icopter": 3760,
      "Ġanyway": 3761,
      "Ġenvious": 3762,
      "Ġdisgusting": 3763,
      "Ġtrumpet": 3764,
      "Ġgor": 3765,
      "Ġadorable": 3766,
      "Ġskip": 3767,
      "Ġtray": 3768,
      "ĠWhere": 3769,
      "Ġpants": 3770,
      "Ġnuts": 3771,
      "Ġvine": 3772,
      "Ġleop": 3773,
      "Ġcards": 3774,
      "Ġbroccoli": 3775,
      "Ġsweetheart": 3776,
      "Ġscrew": 3777,
      "iastic": 3778,
      "Ġfearful": 3779,
      "Ġenthusiastic": 3780,
      "Ġdistant": 3781,
      "irit": 3782,
      "Ġgiggle": 3783,
      "ĠLee": 3784,
      "Ġhelicopter": 3785,
      "gn": 3786,
      "ĠMag": 3787,
      "Ġfilthy": 3788,
      "Ġexper": 3789,
      "Ġcooked": 3790,
      "Ġquar": 3791,
      "Ġhipp": 3792,
      "aroo": 3793,
      "ĠEverything": 3794,
      "ĠDanny": 3795,
      "angaroo": 3796,
      "Re": 3797,
      "Ġharsh": 3798,
      "night": 3799,
      "ĠWould": 3800,
      "Ġpor": 3801,
      "Ġmonkeys": 3802,
      "Ġhook": 3803,
      "opl": 3804,
      "eropl": 3805,
      "Ġsoar": 3806,
      "Ġadmire": 3807,
      "ĠSnow": 3808,
      "Ġscooter": 3809,
      "Ġsandbox": 3810,
      "Ġreco": 3811,
      "Ġnowhere": 3812,
      "Ġpoem": 3813,
      "Ġten": 3814,
      "gie": 3815,
      "Ġaeropl": 3816,
      "gging": 3817,
      "Ġbackpack": 3818,
      "Ġmeas": 3819,
      "Ġexplain": 3820,
      "Ġants": 3821,
      "Ġbelt": 3822,
      "Ġsent": 3823,
      "Ġcows": 3824,
      "stairs": 3825,
      "Ġkangaroo": 3826,
      "ĠRed": 3827,
      "Ġbri": 3828,
      "Ġunpack": 3829,
      "Ġcountry": 3830,
      "Ġbatht": 3831,
      "cycle": 3832,
      "Ġquite": 3833,
      "nna": 3834,
      "Ġspeak": 3835,
      "Ġlid": 3836,
      "Ġmama": 3837,
      "par": 3838,
      "Ġbathtub": 3839,
      "Ġbarking": 3840,
      "ĠSm": 3841,
      "Ġhappier": 3842,
      "Ġsummer": 3843,
      "Ġleopard": 3844,
      "Ġbicycle": 3845,
      "Ġrepair": 3846,
      "Ġlistening": 3847,
      "Ġspell": 3848,
      "Ġostrich": 3849,
      "Ġsepar": 3850,
      "Ġpipe": 3851,
      "Ġmessage": 3852,
      "Ġstared": 3853,
      "Ġsquash": 3854,
      "Ġgrabs": 3855,
      "uct": 3856,
      "ĠPap": 3857,
      "ĠBunny": 3858,
      "Ġgiven": 3859,
      "Ġhuman": 3860,
      "ĠBaby": 3861,
      "ĠMillie": 3862,
      "Ġbreat": 3863,
      "Ġmeat": 3864,
      "Ġmodest": 3865,
      "Ġspirit": 3866,
      "ĠMaria": 3867,
      "hood": 3868,
      "ĠKate": 3869,
      "ĠJess": 3870,
      "Ġgorilla": 3871,
      "Ġmule": 3872,
      "Ġvol": 3873,
      "Ġsort": 3874,
      "Ġpaid": 3875,
      "imi": 3876,
      "Ġdessert": 3877,
      "Ġimpro": 3878,
      "Ġhedge": 3879,
      "Ġfirework": 3880,
      "Ġcomet": 3881,
      "Ġpaws": 3882,
      "Ġalligator": 3883,
      "Bye": 3884,
      "Ġloop": 3885,
      "Ġfinds": 3886,
      "year": 3887,
      "ipping": 3888,
      "Ġsplit": 3889,
      "Ġobser": 3890,
      "Ġur": 3891,
      "Ġfle": 3892,
      "ĠTed": 3893,
      "Ġholes": 3894,
      "ucked": 3895,
      "Ġtripped": 3896,
      "Ġpulls": 3897,
      "ĠHarry": 3898,
      "Ġyogurt": 3899,
      "Ġroared": 3900,
      "Ġfive": 3901,
      "Ġviolin": 3902,
      "Ġrescue": 3903,
      "Ġmelon": 3904,
      "Ġforgave": 3905,
      "Ġpurse": 3906,
      "Ġsize": 3907,
      "Ġwheat": 3908,
      "Ġhall": 3909,
      "Ġsheet": 3910,
      "ĠPapa": 3911,
      "Ġpilot": 3912,
      "Ġtax": 3913,
      "Ġcats": 3914,
      "Ġprov": 3915,
      "Ġshade": 3916,
      "Ġinse": 3917,
      "Ġbikes": 3918,
      "Ġorganize": 3919,
      "Ġraft": 3920,
      "Ġswinging": 3921,
      "Ġhippo": 3922,
      "ophone": 3923,
      "Ġjellyfish": 3924,
      "Ġstarting": 3925,
      "ĠRos": 3926,
      "Ġscold": 3927,
      "Ġhaircut": 3928,
      "ci": 3929,
      "Ġrecogn": 3930,
      "Ġlightning": 3931,
      "Ġsalt": 3932,
      "Ġpushing": 3933,
      "Ġbehave": 3934,
      "Ġcact": 3935,
      "seum": 3936,
      "Ġbuzz": 3937,
      "Ġrice": 3938,
      "Ġsle": 3939,
      "Ġoat": 3940,
      "ĠMimi": 3941,
      "Ġmath": 3942,
      "Ġtriangle": 3943,
      "Ġbrus": 3944,
      "Ġchalk": 3945,
      "Ġenergy": 3946,
      "Ġbin": 3947,
      "Ġbur": 3948,
      "Ġknot": 3949,
      "aled": 3950,
      "Ġfrowned": 3951,
      "ĠBuddy": 3952,
      "ebook": 3953,
      "Ġlip": 3954,
      "Ġmuseum": 3955,
      "Ġeither": 3956,
      "Ġnotebook": 3957,
      "Ġporch": 3958,
      "eer": 3959,
      "iling": 3960,
      "Ġended": 3961,
      "Anna": 3962,
      "Ġpal": 3963,
      "Ġlear": 3964,
      "Ġlearnt": 3965,
      "bul": 3966,
      "Ġped": 3967,
      "cano": 3968,
      "Ġjokes": 3969,
      "Ġrod": 3970,
      "Ġriding": 3971,
      "Ġevening": 3972,
      "Ġtrains": 3973,
      "Ġluck": 3974,
      "iskers": 3975,
      "inking": 3976,
      "Ġsweater": 3977,
      "reci": 3978,
      "Ġbananas": 3979,
      "Ġpapers": 3980,
      "Ġsticker": 3981,
      "Ġlions": 3982,
      "Ġtaxi": 3983,
      "Ġappreci": 3984,
      "Ġboots": 3985,
      "ube": 3986,
      "ĠRu": 3987,
      "Ġcactus": 3988,
      "Ġlend": 3989,
      "Ġneighbour": 3990,
      "Ġstrawberry": 3991,
      "Ġrolling": 3992,
      "ĠTony": 3993,
      "Ġwallet": 3994,
      "Ġsilver": 3995,
      "Ġvolcano": 3996,
      "icer": 3997,
      "Ġchain": 3998,
      "Ġeras": 3999,
      "Ġpanda": 4000,
      "Ġshopkeeper": 4001,
      "Ġbarrel": 4002,
      "ĠWhiskers": 4003,
      "Ġbears": 4004,
      "Ġshakes": 4005,
      "Ġhadn": 4006,
      "Ġmicr": 4007,
      "Ġavoc": 4008,
      "astic": 4009,
      "Ġsmells": 4010,
      "Ġsock": 4011,
      "ffe": 4012,
      "Ġalive": 4013,
      "play": 4014,
      "Ġsteak": 4015,
      "Ġmild": 4016,
      "Ġol": 4017,
      "urch": 4018,
      "ooped": 4019,
      "Ġlaund": 4020,
      "ffee": 4021,
      "Ġpalace": 4022,
      "Ġstrugg": 4023,
      "iron": 4024,
      "Ġputting": 4025,
      "Ġpole": 4026,
      "Ġlaundry": 4027,
      "Ġvisited": 4028,
      "edy": 4029,
      "Ġsoftly": 4030,
      "Ġshield": 4031,
      "Ġreind": 4032,
      "ĠJames": 4033,
      "Ġmagnet": 4034,
      "Ġtricks": 4035,
      "Ġpushes": 4036,
      "Ġmicrophone": 4037,
      "Ġrag": 4038,
      "Ġjudge": 4039,
      "Ġtube": 4040,
      "Ġclapping": 4041,
      "Ġairport": 4042,
      "Ġdrawings": 4043,
      "Ġcolours": 4044,
      "Ġshelter": 4045,
      "Ġpad": 4046,
      "Ġfalling": 4047,
      "Ġsailor": 4048,
      "Ġleaned": 4049,
      "Ġgoal": 4050,
      "Ġzoomed": 4051,
      "Ġbelongs": 4052,
      "Ġink": 4053,
      "ĠInst": 4054,
      "Ġquarrel": 4055,
      "Ġchecked": 4056,
      "Ġmarched": 4057,
      "Ġsaus": 4058,
      "happy": 4059,
      "Ġhive": 4060,
      "Ġunlock": 4061,
      "Ġsprink": 4062,
      "Ġpenguin": 4063,
      "ĠBun": 4064,
      "Ġshovel": 4065,
      "ense": 4066,
      "cast": 4067,
      "elery": 4068,
      "Ġaeroplane": 4069,
      "Ġdisplay": 4070,
      "Ġinsist": 4071,
      "Ġpolish": 4072,
      "Ġambul": 4073,
      "Ġgro": 4074,
      "ĠKat": 4075,
      "Ġclimbing": 4076,
      "hino": 4077,
      "ĠMaggie": 4078,
      "Ġbarks": 4079,
      "Ġreindeer": 4080,
      "Ġsandcast": 4081,
      "ophy": 4082,
      "Ġdishes": 4083,
      "Ġfields": 4084,
      "Ġdive": 4085,
      "ait": 4086,
      "ges": 4087,
      "ĠOr": 4088,
      "Ġapologized": 4089,
      "Ġsoil": 4090,
      "Ġpeek": 4091,
      "Ġgrapes": 4092,
      "Ġavail": 4093,
      "Ġelev": 4094,
      "Ġprun": 4095,
      "Ġskill": 4096,
      "sely": 4097,
      "Ġtrophy": 4098,
      "Ġambulance": 4099,
      "Ġart": 4100,
      "Ġoy": 4101,
      "Ġyach": 4102,
      "Ġhoping": 4103,
      "Ġrubber": 4104,
      "Ġmen": 4105,
      "Ġcoffee": 4106,
      "Ġcostume": 4107,
      "Ġfeelings": 4108,
      "Ġunhappy": 4109,
      "Ġdrops": 4110,
      "ron": 4111,
      "Ġstom": 4112,
      "Ġraining": 4113,
      "Ġonion": 4114,
      "Ġdiary": 4115,
      "Ġincl": 4116,
      "Ġfilm": 4117,
      "anic": 4118,
      "Ġimagine": 4119,
      "Ġelevator": 4120,
      "Ġeraser": 4121,
      "Ġmedal": 4122,
      "Ġthanks": 4123,
      "Ġplanet": 4124,
      "Ġwinter": 4125,
      "Ġshrimp": 4126,
      "Ġminute": 4127,
      "nger": 4128,
      "Ġcomplete": 4129,
      "Ġmarry": 4130,
      "ected": 4131,
      "Ġbasketball": 4132,
      "Ġcelery": 4133,
      "Ġshort": 4134,
      "chanic": 4135,
      "Ġshouldn": 4136,
      "Ġpage": 4137,
      "Ġkitty": 4138,
      "Ġrhino": 4139,
      "Ġfisher": 4140,
      "Ġavailable": 4141,
      "reeze": 4142,
      "Ġbul": 4143,
      "Ġcord": 4144,
      "Ġyacht": 4145,
      "aused": 4146,
      "Ġperfectly": 4147,
      "Ġeagerly": 4148,
      "Ġinsect": 4149,
      "Ġappl": 4150,
      "Ġmechanic": 4151,
      "ĠSmith": 4152,
      "Ġrever": 4153,
      "Ġflies": 4154,
      "Ġclosely": 4155,
      "Ġwool": 4156,
      "Ġcardboard": 4157,
      "Ha": 4158,
      "Ġfurn": 4159,
      "Ġherb": 4160,
      "Ġmagaz": 4161,
      "iture": 4162,
      "Ġbaking": 4163,
      "enny": 4164,
      "ĠAb": 4165,
      "Ġplayer": 4166,
      "ĠâĢĵ": 4167,
      "Ġjournal": 4168,
      "nam": 4169,
      "Ġquit": 4170,
      "Ġfurniture": 4171,
      "Ġtub": 4172,
      "ĠJul": 4173,
      "Ġdisag": 4174,
      "Ġstuffed": 4175,
      "Ġvend": 4176,
      "Ġglove": 4177,
      "Ġpit": 4178,
      "Ġtut": 4179,
      "ecause": 4180,
      "Ġtreasures": 4181,
      "Ġbulb": 4182,
      "Ġpair": 4183,
      "any": 4184,
      "Ġbreaks": 4185,
      "Ġimagination": 4186,
      "gen": 4187,
      "Ġcooler": 4188,
      "Ġfrogs": 4189,
      "ĠClara": 4190,
      "Ġheaded": 4191,
      "Ġfreez": 4192,
      "Ġchurch": 4193,
      "Ġskull": 4194,
      "ĠMiss": 4195,
      "mand": 4196,
      "azz": 4197,
      "Ġcounter": 4198,
      "Ġwife": 4199,
      "place": 4200,
      "ween": 4201,
      "ories": 4202,
      "ĠInstead": 4203,
      "Ġoffer": 4204,
      "Ġswitch": 4205,
      "Ġlie": 4206,
      "pe": 4207,
      "Ġknob": 4208,
      "Ġcheek": 4209,
      "Ġsym": 4210,
      "ides": 4211,
      "Ġbetween": 4212,
      "Ġsunset": 4213,
      "Ġfactor": 4214,
      "Ġchirp": 4215,
      "Dad": 4216,
      "right": 4217,
      "ifl": 4218,
      "aulifl": 4219,
      "Ġcups": 4220,
      "Ġswung": 4221,
      "Ġfootball": 4222,
      "Ġhut": 4223,
      "Ġgolf": 4224,
      "Ġpainter": 4225,
      "Ġblowing": 4226,
      "Ġshouting": 4227,
      "Ġmotorcycle": 4228,
      "Ġfactory": 4229,
      "kelet": 4230,
      "Ġflame": 4231,
      "Ġtwink": 4232,
      "affe": 4233,
      "ĠMay": 4234,
      "quit": 4235,
      "..": 4236,
      "Ġmixer": 4237,
      "Ġvideo": 4238,
      "izes": 4239,
      "Ġfolder": 4240,
      "Ġhotel": 4241,
      "Ġsung": 4242,
      "Ġoil": 4243,
      "Ġheads": 4244,
      "Ġthrows": 4245,
      "bol": 4246,
      "Ġpirates": 4247,
      "Ġseeing": 4248,
      "Ġcushion": 4249,
      "Ġkay": 4250,
      "Ġpeach": 4251,
      "angu": 4252,
      "Ġcreated": 4253,
      "lass": 4254,
      "Ġcaulifl": 4255,
      "Ġframe": 4256,
      "nament": 4257,
      "mm": 4258,
      "Your": 4259,
      "orses": 4260,
      "Ġvendor": 4261,
      "Ġornament": 4262,
      "Ġcoal": 4263,
      "Ġcable": 4264,
      "Ġlangu": 4265,
      "Ġsymbol": 4266,
      "quito": 4267,
      "Ġpine": 4268,
      "Ġfisherman": 4269,
      "zzy": 4270,
      "Ġmos": 4271,
      "Ġwipe": 4272,
      "ccer": 4273,
      "Ġhorses": 4274,
      "Ġskelet": 4275,
      "Ġbattery": 4276,
      "Ġmop": 4277,
      "Ġpopped": 4278,
      "Ġweather": 4279,
      "Ġlaser": 4280,
      "ceros": 4281,
      "Ġforgotten": 4282,
      "ab": 4283,
      "Ġlives": 4284,
      "Ġattention": 4285,
      "Ġmaze": 4286,
      "Ġtrail": 4287,
      "ĠSte": 4288,
      "ĠGod": 4289,
      "Ġrot": 4290,
      "render": 4291,
      "Ġcelebrated": 4292,
      "Ġsoccer": 4293,
      "Ġpowder": 4294,
      "Ġfishing": 4295,
      "Ġstud": 4296,
      "Ġdear": 4297,
      "Ġcauliflower": 4298,
      "elcome": 4299,
      "ites": 4300,
      "rod": 4301,
      "aws": 4302,
      "Ġgiraffe": 4303,
      "Ġmosquito": 4304,
      "Ġsurround": 4305,
      "Ġanch": 4306,
      "Ġswamp": 4307,
      "ef": 4308,
      "Ġsince": 4309,
      "Ġax": 4310,
      "unately": 4311,
      "Ġwaving": 4312,
      "ple": 4313,
      "ĠRosie": 4314,
      "Ġsneak": 4315,
      "Ġflea": 4316,
      "ĠTrue": 4317,
      "Ġslept": 4318,
      "ney": 4319,
      "Ġitch": 4320,
      "Ġintrod": 4321,
      "Ġfireplace": 4322,
      "Ġpoint": 4323,
      "Ġrhinoceros": 4324,
      "Ġpoke": 4325,
      "Ġyoga": 4326,
      "Ġpoints": 4327,
      "Ġtutor": 4328,
      "Ġstreng": 4329,
      "Ġbreeze": 4330,
      "Ġglowing": 4331,
      "Ġvet": 4332,
      "Ġsub": 4333,
      "Ġiron": 4334,
      "Ġkingdom": 4335,
      "lasses": 4336,
      "Ġphoto": 4337,
      "Ġpetals": 4338,
      "ĠTina": 4339,
      "Ġsunglasses": 4340,
      "Ġmemories": 4341,
      "Ġstrength": 4342,
      "Ġreve": 4343,
      "Max": 4344,
      "Ġparent": 4345,
      "Ġceiling": 4346,
      "Ġvest": 4347,
      "Ġchickens": 4348,
      "Ġsir": 4349,
      "hero": 4350,
      "ckey": 4351,
      "Ġhockey": 4352,
      "spap": 4353,
      "Ġbaseball": 4354,
      "Ġmistakes": 4355,
      "Ġgrin": 4356,
      "Ġskeleton": 4357,
      "Ġig": 4358,
      "Ġgreedy": 4359,
      "Ġcomplain": 4360,
      "Ġsquirrels": 4361,
      "Ġanchor": 4362,
      "Ġnewspap": 4363,
      "Ġaxe": 4364,
      "chie": 4365,
      "Ġigloo": 4366,
      "rosc": 4367,
      "Ġgolden": 4368,
      "Ġnapkin": 4369,
      "Ġunif": 4370,
      "Ġsuperhero": 4371,
      "Ġfog": 4372,
      "Ġdancer": 4373,
      "Ġhanging": 4374,
      "Ġtuna": 4375,
      "Ġargue": 4376,
      "Ġgrocer": 4377,
      "Ġuniform": 4378,
      "Ġsniffed": 4379,
      "Ġtemple": 4380,
      "Ġstaff": 4381,
      "ues": 4382,
      "Ġmusician": 4383,
      "Ġtrave": 4384,
      "Ġmicrosc": 4385,
      "Ġtheater": 4386,
      "Ġlime": 4387,
      "Ġagree": 4388,
      "medi": 4389,
      "Ġsque": 4390,
      "Ġdiscu": 4391,
      "reek": 4392,
      "Ġeaten": 4393,
      "mediately": 4394,
      "Ġwelcomed": 4395,
      "oh": 4396,
      "Ġmicroscope": 4397,
      "Ġzipper": 4398,
      "Ġaccepted": 4399,
      "Ġskirt": 4400,
      "Ġmeeting": 4401,
      "Ġcreek": 4402,
      "ssible": 4403,
      "Ġinvest": 4404,
      "istol": 4405,
      "Ġpinch": 4406,
      "Ġslipper": 4407,
      "Ġseas": 4408,
      "Ġbury": 4409,
      "Ġflapped": 4410,
      "Ġquietly": 4411,
      "Ġinvestig": 4412,
      "Ġavocado": 4413,
      "sing": 4414,
      "Ġdoors": 4415,
      "Ġpistol": 4416,
      "Ġthrowing": 4417,
      "Ġslippery": 4418,
      "erc": 4419,
      "Ġradish": 4420,
      "house": 4421,
      "Ġshoulder": 4422,
      "Ġbouncing": 4423,
      "Ġvroom": 4424,
      "Ġcalls": 4425,
      "tress": 4426,
      "Ġpear": 4427,
      "Ġkayak": 4428,
      "Qu": 4429,
      "Ġplastic": 4430,
      "Ġmattress": 4431,
      "Ġminer": 4432,
      "Ġfought": 4433,
      "Ġsurrender": 4434,
      "Wait": 4435,
      "Ġnovel": 4436,
      "aces": 4437,
      "chair": 4438,
      "Ġmoves": 4439,
      "Ġlawy": 4440,
      "men": 4441,
      "Ġcob": 4442,
      "alley": 4443,
      "tain": 4444,
      "Ġsticky": 4445,
      "Ġcared": 4446,
      "case": 4447,
      "Ġmakeup": 4448,
      "Ġfreezer": 4449,
      "Ġsuff": 4450,
      "Ġcub": 4451,
      "te": 4452,
      "Ġfauc": 4453,
      "aud": 4454,
      "Ġlotion": 4455,
      "inked": 4456,
      "llie": 4457,
      "Ġwriting": 4458,
      "ĠFirst": 4459,
      "Timmy": 4460,
      "Ġcherries": 4461,
      "Ġtug": 4462,
      "was": 4463,
      "Ġvalley": 4464,
      "imney": 4465,
      "ĠRe": 4466,
      "Ġinvestigate": 4467,
      "Ġmystery": 4468,
      "Ġreef": 4469,
      "Ġchimney": 4470,
      "Ġtoil": 4471,
      "ler": 4472,
      "web": 4473,
      "ison": 4474,
      "Ġsplashing": 4475,
      "Ġcrib": 4476,
      "Ġsailing": 4477,
      "Ġworth": 4478,
      "Ġregret": 4479,
      "Ġfaucet": 4480,
      "Ġarmchair": 4481,
      "Ġcollected": 4482,
      "Ġoyster": 4483,
      "Ġexerc": 4484,
      "Ġveil": 4485,
      "ĠFreddy": 4486,
      "Ġnews": 4487,
      "Ġagre": 4488,
      "washer": 4489,
      "Ġwags": 4490,
      "Ġhar": 4491,
      "Ġticket": 4492,
      "Ġquack": 4493,
      "Ġcastles": 4494,
      "Ġshrugged": 4495,
      "Ġsprayed": 4496,
      "Ġpresents": 4497,
      "Ġmagazine": 4498,
      "Ġentered": 4499,
      "Ġhappens": 4500,
      "Ġdishwasher": 4501,
      "Ġprevent": 4502,
      "Ġscolded": 4503,
      "Ġtoilet": 4504,
      "Ġtear": 4505,
      "Thanks": 4506,
      "Ġcobweb": 4507,
      "Ġchess": 4508,
      "ives": 4509,
      "Ġseparate": 4510,
      "Ġapplaud": 4511,
      "Ġalarm": 4512,
      "Ġweigh": 4513,
      "Ġtucked": 4514,
      "ĠSee": 4515,
      "Ġrake": 4516,
      "Ġpassport": 4517,
      "Ġblankets": 4518,
      "Ġchoice": 4519,
      "Ġlawyer": 4520,
      "ived": 4521,
      "Ġcoats": 4522,
      "Ġpuddles": 4523,
      "Ġattach": 4524,
      "sit": 4525,
      "Ġcandles": 4526,
      "Ġkisses": 4527,
      "Ġapart": 4528,
      "Ġhopes": 4529,
      "ety": 4530,
      "Ġappro": 4531,
      "Ġignored": 4532,
      "ĠSad": 4533,
      "Ġfollows": 4534,
      "ring": 4535,
      "ĠMilly": 4536,
      "Ġclassroom": 4537,
      "Ġdisappear": 4538,
      "Ġeasily": 4539,
      "Ġchairs": 4540,
      "Ġbeef": 4541,
      "Ġbother": 4542,
      "Ġtrusted": 4543,
      "Ġlanguage": 4544,
      "Ġstraight": 4545,
      "Ġsizes": 4546,
      "Ġraz": 4547,
      "Ġward": 4548,
      "Ġyield": 4549,
      "Ġletting": 4550,
      "Ġburned": 4551,
      "Ġdressed": 4552,
      "Ġshower": 4553,
      "Ġcane": 4554,
      "eterin": 4555,
      "eterinarian": 4556,
      "Ġcaring": 4557,
      "Ġrequ": 4558,
      "Ġkeeping": 4559,
      "Ġcabinet": 4560,
      "ĠMe": 4561,
      "raged": 4562,
      "Ġwardrobe": 4563,
      "Ġstable": 4564,
      "Ġblinked": 4565,
      "Ġrise": 4566,
      "atched": 4567,
      "Ġplanes": 4568,
      "Ġveterinarian": 4569,
      "Sam": 4570,
      "Ġjewelry": 4571,
      "iday": 4572,
      "Ġteleph": 4573,
      "Ġbookshe": 4574,
      "Ġlawn": 4575,
      "Ġoak": 4576,
      "Ġwhisper": 4577,
      "ĠHowever": 4578,
      "Ġstro": 4579,
      "Ġble": 4580,
      "Ġsigh": 4581,
      "Ġcrossed": 4582,
      "Ġincre": 4583,
      "Ġtrade": 4584,
      "Ġpuzzles": 4585,
      "mend": 4586,
      "Ġclaws": 4587,
      "Ġtornado": 4588,
      "vision": 4589,
      "Ġcell": 4590,
      "ival": 4591,
      "Ġnewspaper": 4592,
      "Ġtelephone": 4593,
      "Ġrooms": 4594,
      "una": 4595,
      "Ġmissile": 4596,
      "Ġaut": 4597,
      "Ġbookcase": 4598,
      "Ġopera": 4599,
      "Ġamazement": 4600,
      "anges": 4601,
      "ĠRuby": 4602,
      "Ġinf": 4603,
      "Ġbookshelf": 4604,
      "ommend": 4605,
      "Ġblueberries": 4606,
      "Ġperfu": 4607,
      "Ġsqueezed": 4608,
      "Ġscratch": 4609,
      "Ġrecommend": 4610,
      "Ġsnap": 4611,
      "ction": 4612,
      "Ġblouse": 4613,
      "ampoo": 4614,
      "Ġdelay": 4615,
      "Ġrazor": 4616,
      "Ġpra": 4617,
      "Ġrequest": 4618,
      "Ġsubway": 4619,
      "Ġgrill": 4620,
      "ĠHelp": 4621,
      "Ġlumber": 4622,
      "ggy": 4623,
      "Ġgym": 4624,
      "Ġbill": 4625,
      "Ġpoked": 4626,
      "Ġpur": 4627,
      "Ġcrawling": 4628,
      "ah": 4629,
      "Ġhol": 4630,
      "Because": 4631,
      "Ġfile": 4632,
      "Ġmint": 4633,
      "Ġtelevision": 4634,
      "Sara": 4635,
      "Ġfollowing": 4636,
      "iction": 4637,
      "Ġringing": 4638,
      "Ġholiday": 4639,
      "Is": 4640,
      "omes": 4641,
      "Ġcliff": 4642,
      "Ġmuffin": 4643,
      "bbie": 4644,
      "Ġexperience": 4645,
      "Ġlicks": 4646,
      "Ġdemand": 4647,
      "Ġserve": 4648,
      "Ġsqueeze": 4649,
      "Ġimprove": 4650,
      "Ġperfume": 4651,
      "And": 4652,
      "Ġshampoo": 4653,
      "fortunately": 4654,
      "ĠIs": 4655,
      "ictionary": 4656,
      "Ġribbon": 4657,
      "ĠFo": 4658,
      "Ġspear": 4659,
      "Ġsteam": 4660,
      "Ġfest": 4661,
      "Ġgrowled": 4662,
      "ĠSnowy": 4663,
      "Ġbegged": 4664,
      "Ġhelper": 4665,
      "Ġbirdc": 4666,
      "Ġimmediately": 4667,
      "Ġisn": 4668,
      "ĠKatie": 4669,
      "Ġwarmth": 4670,
      "Ġcrow": 4671,
      "Ġdictionary": 4672,
      "Ġpastry": 4673,
      "Ġprop": 4674,
      "Ġshrink": 4675,
      "Ġwaste": 4676,
      "Ġfuel": 4677,
      "asis": 4678,
      "Ġsneeze": 4679,
      "ĠPeople": 4680,
      "Ġbirdcage": 4681,
      "Ġblood": 4682,
      "Ġideas": 4683,
      "ib": 4684,
      "ores": 4685,
      "Ġmatches": 4686,
      "Ġweep": 4687,
      "Ġalright": 4688,
      "Ġinvite": 4689,
      "Ġflutter": 4690,
      "Ġcale": 4691,
      "Ġgear": 4692,
      "Ġmustache": 4693,
      "Ġrow": 4694,
      "Ġcalend": 4695,
      "ĠLuck": 4696,
      "Ġyucky": 4697,
      "Ġmarried": 4698,
      "Ġfallen": 4699,
      "hic": 4700,
      "Ġrail": 4701,
      "Ġberry": 4702,
      "Ġvehic": 4703,
      "Ġoasis": 4704,
      "lier": 4705,
      "ĠLuckily": 4706,
      "Did": 4707,
      "Ġrefre": 4708,
      "Ġinstr": 4709,
      "Ġrabbits": 4710,
      "Ġwigg": 4711,
      "Ġlaught": 4712,
      "ups": 4713,
      "Ġworms": 4714,
      "ĠEach": 4715,
      "Ġbravely": 4716,
      "ucture": 4717,
      "Ġdrain": 4718,
      "ĠOllie": 4719,
      "Ġstructure": 4720,
      "inky": 4721,
      "Ġsurprises": 4722,
      "Ġbelow": 4723,
      "ĠLiz": 4724,
      "Ġunderstanding": 4725,
      "Ġlaughter": 4726,
      "Ġwandered": 4727,
      "Ġcalendar": 4728,
      "Ġdire": 4729,
      "Ok": 4730,
      "Ġhurting": 4731,
      "ising": 4732,
      "Ġpages": 4733,
      "Ġkneel": 4734,
      "Ġharb": 4735,
      "omeday": 4736,
      "Ġfloat": 4737,
      "Ġairpl": 4738,
      "Ġenter": 4739,
      "Ġhearts": 4740,
      "Ġspade": 4741,
      "Ġitem": 4742,
      "Ġcrash": 4743,
      "Ġapron": 4744,
      "Ġstrawberries": 4745,
      "Ġreaches": 4746,
      "Ġsafety": 4747,
      "omob": 4748,
      "Ġjunk": 4749,
      "ĠKing": 4750,
      "Ġsandcastle": 4751,
      "Ġadmir": 4752,
      "Ġrelaxed": 4753,
      "Ġbuckle": 4754,
      "oral": 4755,
      "Ġbathe": 4756,
      "Ġautomob": 4757,
      "Ġmyself": 4758,
      "Ġmoments": 4759,
      "Ġignore": 4760,
      "Ġwhip": 4761,
      "Ġplates": 4762,
      "ĠCo": 4763,
      "Ġcaptain": 4764,
      "Ġskills": 4765,
      "Welcome": 4766,
      "ĠWho": 4767,
      "'ve": 4768,
      "Ġburied": 4769,
      "icing": 4770,
      "Ġreverse": 4771,
      "Ġfestival": 4772,
      "ĠSteve": 4773,
      "cakes": 4774,
      "Ġraise": 4775,
      "Ġbeamed": 4776,
      "Ġlic": 4777,
      "achel": 4778,
      "htray": 4779,
      "Ġquiz": 4780,
      "Ġreceived": 4781,
      "ĠBetsy": 4782,
      "Ġroot": 4783,
      "Ġsnapped": 4784,
      "Ġtong": 4785,
      "ĠEveryday": 4786,
      "Ġashtray": 4787,
      "ĠJoy": 4788,
      "'.": 4789,
      "Ġsomeday": 4790,
      "Ġharbor": 4791,
      "Ġmass": 4792,
      "Yuck": 4793,
      "Ġearlier": 4794,
      "Ġmodel": 4795,
      "ĠRachel": 4796,
      "ĠIts": 4797,
      "Ġvac": 4798,
      "Ġspots": 4799,
      "riger": 4800,
      "Ġsaving": 4801,
      "Ġsparkling": 4802,
      "Ġthumb": 4803,
      "aped": 4804,
      "ari": 4805,
      "Ġteaching": 4806,
      "Ġvanished": 4807,
      "Ġweap": 4808,
      "Ġrefriger": 4809,
      "ission": 4810,
      "Ġbumped": 4811,
      "Ġrefrigerator": 4812,
      "Ġsocks": 4813,
      "Ġblackboard": 4814,
      "Ġdried": 4815,
      "anna": 4816,
      "Ġinsisted": 4817,
      "Ġpermission": 4818,
      "Ġsupply": 4819,
      "Ġscattered": 4820,
      "Ġsettled": 4821,
      "Ġprepare": 4822,
      "ĠPoppy": 4823,
      "ĠFrank": 4824,
      "ĠV": 4825,
      "Ġbalan": 4826,
      "Ġtoes": 4827,
      "Ġspending": 4828,
      "ĠBuzz": 4829,
      "Ġjail": 4830,
      "igail": 4831,
      "Ġboot": 4832,
      "Ġjewels": 4833,
      "ĠPenny": 4834,
      "nce": 4835,
      "Ġyawned": 4836,
      "Ġscooped": 4837,
      "Ġachie": 4838,
      "ctly": 4839,
      "xy": 4840,
      "amber": 4841,
      "Ġknown": 4842,
      "Ġsparkle": 4843,
      "Ġwaffle": 4844,
      "Ġdestroyed": 4845,
      "Ġbreathe": 4846,
      "Ġres": 4847,
      "Ġtease": 4848,
      "Ġreplace": 4849,
      "Ġbathrobe": 4850,
      "Ġhardly": 4851,
      "ops": 4852,
      "Ġencouraged": 4853,
      "Ġremain": 4854,
      "Ġdare": 4855,
      "Ġsits": 4856,
      "ĠHave": 4857,
      "Ġpride": 4858,
      "Ġremove": 4859,
      "antly": 4860,
      "ĠAbigail": 4861,
      "Ġlicense": 4862,
      "Ġpulling": 4863,
      "Ġdecorations": 4864,
      "Ġlemonade": 4865,
      "Ġhate": 4866,
      "sters": 4867,
      "Ġsimp": 4868,
      "uch": 4869,
      "Ġbeans": 4870,
      "Ġhanger": 4871,
      "Ġdaisy": 4872,
      "asp": 4873,
      "Ġcuddled": 4874,
      "Ġchirping": 4875,
      "Ġmention": 4876,
      "Ġport": 4877,
      "Ġequ": 4878,
      "ĠDav": 4879,
      "Ġhits": 4880,
      "Ġpraised": 4881,
      "ents": 4882,
      "Ġrespons": 4883,
      "Ġfastest": 4884,
      "Ġbuzzing": 4885,
      "Ġsuffer": 4886,
      "Ġpatiently": 4887,
      "Ġdresses": 4888,
      "reat": 4889,
      "Ġdestination": 4890,
      "Ġtaller": 4891,
      "Ġwiz": 4892,
      "Ġrhy": 4893,
      "Ġguy": 4894,
      "Ġbleed": 4895,
      "Ġnation": 4896,
      "Ġpoppy": 4897,
      "nies": 4898,
      "Ġappreciate": 4899,
      "Ġwashing": 4900,
      "ĠMat": 4901,
      "Ġclimbs": 4902,
      "Ġmall": 4903,
      "Ġautomobile": 4904,
      "ĠDavid": 4905,
      "Ġdigg": 4906,
      "ium": 4907,
      "Ġflav": 4908,
      "osed": 4909,
      "Ġhomes": 4910,
      "sity": 4911,
      "Ġlabel": 4912,
      "fied": 4913,
      "Ġbelieved": 4914,
      "Ġhesit": 4915,
      "Ġpalm": 4916,
      "Ġdigging": 4917,
      "Mmm": 4918,
      "Ġshot": 4919,
      "Ġglo": 4920,
      "Ġapproached": 4921,
      "Ġrestore": 4922,
      "ude": 4923,
      "Ġdeeper": 4924,
      "Ġnone": 4925,
      "Ġsausage": 4926,
      "Ġinfant": 4927,
      "Ġtore": 4928,
      "Ġtongue": 4929,
      "Ġhers": 4930,
      "Ġhills": 4931,
      "Ġhurric": 4932,
      "Ġmitten": 4933,
      "Ġwine": 4934,
      "Ġchamber": 4935,
      "Ġstruggling": 4936,
      "Ġpunish": 4937,
      "Ġupstairs": 4938,
      "Ġsneezed": 4939,
      "rm": 4940,
      "Ġheat": 4941,
      "Ġpillows": 4942,
      "Ġwizard": 4943,
      "Ġbillboard": 4944,
      "Ġscore": 4945,
      "Ġthrilled": 4946,
      "Ġwarning": 4947,
      "Ġdiscuss": 4948,
      "Ġpanic": 4949,
      "Ġbrain": 4950,
      "Ġuniverse": 4951,
      "Ġsport": 4952,
      "Ġprovide": 4953,
      "Ġcrunch": 4954,
      "Ġawe": 4955,
      "Ġtwisted": 4956,
      "Ġglowed": 4957,
      "Ġshed": 4958,
      "Ġsolved": 4959,
      "Ġparts": 4960,
      "osity": 4961,
      "Ġfiref": 4962,
      "Ġhurricane": 4963,
      "Ġsetting": 4964,
      "Ġworse": 4965,
      "Ġvacation": 4966,
      "ĠSpike": 4967,
      "Ġevent": 4968,
      "Ġtherm": 4969,
      "bey": 4970,
      "Ġremained": 4971,
      "Ġsparkles": 4972,
      "Ġranch": 4973,
      "Ġtour": 4974,
      "Ġairplane": 4975,
      "Ġsty": 4976,
      "allen": 4977,
      "Ġexamine": 4978,
      "Ġpoison": 4979,
      "Ġinvit": 4980,
      "Ġweeks": 4981,
      "Ġshooting": 4982,
      "Ġplays": 4983,
      "Ġneighborhood": 4984,
      "Ġoranges": 4985,
      "Ġchores": 4986,
      "Ġfloated": 4987,
      "Ġthermomet": 4988,
      "Ġchallen": 4989,
      "thm": 4990,
      "Ġleak": 4991,
      "shing": 4992,
      "Ġrepeat": 4993,
      "ging": 4994,
      "Ġfloating": 4995,
      "aspoon": 4996,
      "Ġmeasured": 4997,
      "Ġpaints": 4998,
      "adium": 4999,
      "Ġbang": 5000,
      "ĠCat": 5001,
      "Ġcherry": 5002,
      "Ġmassage": 5003,
      "Ġgrinned": 5004,
      "Ġbites": 5005,
      "Ġthermometer": 5006,
      "Ġuniversity": 5007,
      "Ġstadium": 5008,
      "Ġduring": 5009,
      "!\",": 5010,
      "Ġpaused": 5011,
      "Ġsurrounded": 5012,
      "These": 5013,
      "Ġfasc": 5014,
      "Ġteaspoon": 5015,
      "Ġfixing": 5016,
      "Ġconf": 5017,
      "Ġrhythm": 5018,
      "Ġbrings": 5019,
      "Ġfut": 5020,
      "Ġcollection": 5021,
      "Ġsupposed": 5022,
      "Ġgifts": 5023,
      "Ġfuture": 5024,
      "!'": 5025,
      "Ġgrey": 5026,
      "ĠUnfortunately": 5027,
      "Ġmemory": 5028,
      "Ġsprinkles": 5029,
      "ĠZoe": 5030,
      "Ġflood": 5031,
      "Ġstomach": 5032,
      "emember": 5033,
      "Ġsigns": 5034,
      "rise": 5035,
      "Ġlily": 5036,
      "Ġgust": 5037,
      "Would": 5038,
      "do": 5039,
      "Ġtide": 5040,
      "Ġinclud": 5041,
      "ĠGood": 5042,
      "Ġactually": 5043,
      "Ġjazz": 5044,
      "Ġmarbles": 5045,
      "bbles": 5046,
      "Ġwisdom": 5047,
      "ishing": 5048,
      "Ġdiscovery": 5049,
      "Ġsew": 5050,
      "ls": 5051,
      "vet": 5052,
      "Sp": 5053,
      "Ġvehicle": 5054,
      "Ġsunrise": 5055,
      "Ġgirls": 5056,
      "Ġtomatoes": 5057,
      "ĠRa": 5058,
      "iers": 5059,
      "Ġstrang": 5060,
      "ĠBeth": 5061,
      "Ġexercise": 5062,
      "Ġchewed": 5063,
      "Ġmeowed": 5064,
      "Ġrush": 5065,
      "Ġtoe": 5066,
      "Ġurge": 5067,
      "Ġdecision": 5068,
      "Ġelephants": 5069,
      "Ġmailman": 5070,
      "Ġfascin": 5071,
      "umble": 5072,
      "Ġunite": 5073,
      "Ġobserve": 5074,
      "cles": 5075,
      "Ġsore": 5076,
      "Ġcartoons": 5077,
      "Ġweapon": 5078,
      "Ġlugg": 5079,
      "Ġgrape": 5080,
      "ĠChr": 5081,
      "Ġpossible": 5082,
      "ero": 5083,
      "Ġscur": 5084,
      "Ġluggage": 5085,
      "Ġsunlight": 5086,
      "ĠQu": 5087,
      "allow": 5088,
      "Ġcakes": 5089,
      "ĠJam": 5090,
      "Ġrust": 5091,
      "Ġchirped": 5092,
      "Ġmelted": 5093,
      "Ġx": 5094,
      "Ġcurled": 5095,
      "ĠSomeone": 5096,
      "uing": 5097,
      "ities": 5098,
      "Ġspill": 5099,
      "Ġfolded": 5100,
      "Ġcollecting": 5101,
      "Ġsip": 5102,
      "Ġdifference": 5103,
      "Ġmineral": 5104,
      "son": 5105,
      "Ġbak": 5106,
      "ipment": 5107,
      "ĠRemy": 5108,
      "ĠJe": 5109,
      "ĠJan": 5110,
      "Sh": 5111,
      "Ġequipment": 5112,
      "Ġproblems": 5113,
      "Ġwherever": 5114,
      "Ready": 5115,
      "Ġmanage": 5116,
      "Ġjogging": 5117,
      "ĠSpark": 5118,
      "Ġsoldiers": 5119,
      "etch": 5120,
      "Not": 5121,
      "Ġlaid": 5122,
      "Ġmountains": 5123,
      "Ġoper": 5124,
      "Ġadmiring": 5125,
      "cious": 5126,
      "Ġbes": 5127,
      "Ġtracks": 5128,
      "Ġsatis": 5129,
      "ĠFro": 5130,
      "Ġsliding": 5131,
      "Ġcontain": 5132,
      "oved": 5133,
      "Ġlick": 5134,
      "Ġwatered": 5135,
      "Ġpetted": 5136,
      "rr": 5137,
      "Ġskipping": 5138,
      "Ġtwigs": 5139,
      "Ġkindly": 5140,
      "ĠThom": 5141,
      "Ġpatterns": 5142,
      "Ġstrangers": 5143,
      "walk": 5144,
      "bers": 5145,
      "joyed": 5146,
      "Ġreceive": 5147,
      "ĠNina": 5148,
      "Ġseats": 5149,
      "Ġpotatoes": 5150,
      "Ġgloves": 5151,
      "Ġspaces": 5152,
      "Ġcopper": 5153,
      "Ġemer": 5154,
      "Ġoverjoyed": 5155,
      "ĠSund": 5156,
      "eed": 5157,
      "zag": 5158,
      "Ġlets": 5159,
      "Ġkeeper": 5160,
      "Ġgain": 5161,
      "Ġgotten": 5162,
      "ĠSunday": 5163,
      "ĠLuna": 5164,
      "Ġslice": 5165,
      "Ġbricks": 5166,
      "Ġcontinue": 5167,
      "Ġwatches": 5168,
      "Ġordered": 5169,
      "Ġlands": 5170,
      "Ġgaz": 5171,
      "Ġwhistling": 5172,
      "ĠAd": 5173,
      "Ġpigs": 5174,
      "bbled": 5175,
      "Ġprayed": 5176,
      "ĠThomas": 5177,
      "Ġsidewalk": 5178,
      "Ġzipped": 5179,
      "ĠJulie": 5180,
      "Ġbeside": 5181,
      "mother": 5182,
      "Ġinvitation": 5183,
      "Ġmarching": 5184,
      "Ġspit": 5185,
      "Ġbeg": 5186,
      "Ġours": 5187,
      "Ġsafari": 5188,
      "Ġnavy": 5189,
      "ĠMoral": 5190,
      "Ġpeered": 5191,
      "Ġnetwork": 5192,
      "Ġeff": 5193,
      "Ġraised": 5194,
      "Ġglitter": 5195,
      "irp": 5196,
      "ases": 5197,
      "ĠNot": 5198,
      "Ġearthqu": 5199,
      "Ġacorns": 5200,
      "Ġwooden": 5201,
      "Ġgrocery": 5202,
      "Ġweight": 5203,
      "igzag": 5204,
      "Ġeagle": 5205,
      "Ġcompany": 5206,
      "ĠUncle": 5207,
      "Ġdoggy": 5208,
      "Ġweren": 5209,
      "Ġdrinks": 5210,
      "Ġdisagreed": 5211,
      "Ġattached": 5212,
      "Ġbeat": 5213,
      "Ġonwards": 5214,
      "Yum": 5215,
      "Ġmister": 5216,
      "hest": 5217,
      "fy": 5218,
      "Ġhappiest": 5219,
      "\",": 5220,
      "ĠSuzy": 5221,
      "ĠChl": 5222,
      "Ġburning": 5223,
      "ĠSunny": 5224,
      "Ġracing": 5225,
      "ĠSharing": 5226,
      "ĠJosh": 5227,
      "Ġofficer": 5228,
      "Ġwre": 5229,
      "Ġcrunchy": 5230,
      "Ġbrid": 5231,
      "Ġfed": 5232,
      "Ġspoons": 5233,
      "Ġprice": 5234,
      "Ġhist": 5235,
      "Ġcrashed": 5236,
      "ĠKay": 5237,
      "Ġpeanuts": 5238,
      "Ġmeow": 5239,
      "Ouch": 5240,
      "Ġhurried": 5241,
      "Ġrefreshed": 5242,
      "Ġolive": 5243,
      "seek": 5244,
      "Ġhistory": 5245,
      "Ġpies": 5246,
      "Ġwhistled": 5247,
      "Ġoperation": 5248,
      "Ġclearing": 5249,
      "Ġflap": 5250,
      "ĠSure": 5251,
      "Ġbowed": 5252,
      "Ġbrick": 5253,
      "ĠChloe": 5254,
      "Ġprune": 5255,
      "Ġdinosaurs": 5256,
      "Ġtremb": 5257,
      "ĠAm": 5258,
      "amb": 5259,
      "Ġtalent": 5260,
      "Ġprepared": 5261,
      "Will": 5262,
      "Ġescaped": 5263,
      "Ġscratched": 5264,
      "Ġremem": 5265,
      "Ġlips": 5266,
      "nie": 5267,
      "Ġbuildings": 5268,
      "Ġplanted": 5269,
      "Ġmenu": 5270,
      "Ġworks": 5271,
      "Ġremembers": 5272,
      "Ġexa": 5273,
      "Ġaccom": 5274,
      "aded": 5275,
      "Ġeasier": 5276,
      "ĠNut": 5277,
      "Ġbridges": 5278,
      "ĠPr": 5279,
      "Really": 5280,
      "Ġfireworks": 5281,
      "Ġrevealed": 5282,
      "Ġbye": 5283,
      "Ġhated": 5284,
      "Ġbrand": 5285,
      "Ġchat": 5286,
      "Ġcomfy": 5287,
      "Ġscreams": 5288,
      "Ġturning": 5289,
      "Ġcrept": 5290,
      "ĠJamie": 5291,
      "Ġselling": 5292,
      "Ġsnowball": 5293,
      "Ġrecognized": 5294,
      "Ġwarn": 5295,
      "Ġprecious": 5296,
      "Ġpadd": 5297,
      "Ġsings": 5298,
      "ĠSadly": 5299,
      "Ġpupp": 5300,
      "ĠAn": 5301,
      "die": 5302,
      "Ġdrinking": 5303,
      "ĠBy": 5304,
      "Ġaccompl": 5305,
      "Ġmuddy": 5306,
      "Ġsettle": 5307,
      "Ġsimple": 5308,
      "cc": 5309,
      "Ġwid": 5310,
      "ĠChirp": 5311,
      "Ġstrip": 5312,
      "xygen": 5313,
      "Ġreminder": 5314,
      "ecture": 5315,
      "Ġbeds": 5316,
      "Ġlandsc": 5317,
      "Ġearthquake": 5318,
      "Ġperched": 5319,
      "Ġspaceship": 5320,
      "Ġeffort": 5321,
      "Ġbones": 5322,
      "Ġmeasuring": 5323,
      "Ġslip": 5324,
      "Ġlecture": 5325,
      "Ġserved": 5326,
      "Ġappear": 5327,
      "ĠCla": 5328,
      "Ġvict": 5329,
      "Ġvoices": 5330,
      "ĠOl": 5331,
      "Ġpitch": 5332,
      "Ġcuddle": 5333,
      "Ġcal": 5334,
      "Ġshadows": 5335,
      "Ġcircus": 5336,
      "Ġrained": 5337,
      "Ġvel": 5338,
      "Ġcomforted": 5339,
      "Ġprinter": 5340,
      "Ġeveryday": 5341,
      "Ġpedal": 5342,
      "Ġobey": 5343,
      "Ġwhatever": 5344,
      "Ġwonders": 5345,
      "Ġsoared": 5346,
      "Ġpets": 5347,
      "Ġagreement": 5348,
      "Ġwaits": 5349,
      "Ġallow": 5350,
      "Ġanytime": 5351,
      "Ġtrapped": 5352,
      "Ġcutting": 5353,
      "Ġresponsible": 5354,
      "Ġrang": 5355,
      "Ġtip": 5356,
      "ffic": 5357,
      "Ġsteel": 5358,
      "anny": 5359,
      "Ġtastes": 5360,
      "Ġapologize": 5361,
      "Ġsecrets": 5362,
      "Ġzigzag": 5363,
      "ĠLu": 5364,
      "Ġdisturbed": 5365,
      "Ġshopping": 5366,
      "ĠAnne": 5367,
      "ĠPip": 5368,
      "Ġsucceeded": 5369,
      "Ġvelvet": 5370,
      "Ġswims": 5371,
      "Ġitems": 5372,
      "ĠRob": 5373,
      "ĠMad": 5374,
      "Ġbun": 5375,
      "Ġbringing": 5376,
      "Ġoats": 5377,
      "Ġvillag": 5378,
      "Ġlandscape": 5379,
      "Ġwaist": 5380,
      "Ġpracticing": 5381,
      "Ġvisiting": 5382,
      "ĠHanna": 5383,
      "Ġsisters": 5384,
      "To": 5385,
      "Ġtraffic": 5386,
      "Ġexactly": 5387,
      "Ġscoop": 5388,
      "Ġolives": 5389,
      "Ġcostumes": 5390,
      "Ġrested": 5391,
      "izing": 5392,
      "Ġactiv": 5393,
      "ĠBig": 5394,
      "Ġmouths": 5395,
      "Ġstyle": 5396,
      "Ġimage": 5397,
      "Ġanswers": 5398,
      "Ġsoak": 5399,
      "ĠCoco": 5400,
      "ien": 5401,
      "Ġrele": 5402,
      "mble": 5403,
      "ĠFor": 5404,
      "Ġowned": 5405,
      "neath": 5406,
      "ĠKe": 5407,
      "Ġbreaking": 5408,
      "mare": 5409,
      "Ġcuriosity": 5410,
      "Ġbene": 5411,
      "Ġbrushed": 5412,
      "Ġoutdo": 5413,
      "oming": 5414,
      "Ġladyb": 5415,
      "Ġfascinated": 5416,
      "Ġfashion": 5417,
      "Ġencourage": 5418,
      "ishes": 5419,
      "Ġwaffles": 5420,
      "iggy": 5421,
      "Ġcreation": 5422,
      "Ġunderground": 5423,
      "icorn": 5424,
      "Ġnails": 5425,
      "Ġbeneath": 5426,
      "Ġunicorn": 5427,
      "ĠClaire": 5428,
      "Ġdied": 5429,
      "terday": 5430,
      "Ġknelt": 5431,
      "ik": 5432,
      "Ġunlocked": 5433,
      "Ġleather": 5434,
      "Ġcatching": 5435,
      "Ġsadness": 5436,
      "ĠThese": 5437,
      "ĠRabbit": 5438,
      "ĠGr": 5439,
      "Ġnightmare": 5440,
      "Ġdownstairs": 5441,
      "Ġvillagers": 5442,
      "Ġeats": 5443,
      "ĠFloppy": 5444,
      "Ġsix": 5445,
      "Ġmonsters": 5446,
      "ĠLucky": 5447,
      "One": 5448,
      "Ġwanting": 5449,
      "enty": 5450,
      "Ġgrandmother": 5451,
      "Ġoxygen": 5452,
      "inda": 5453,
      "isten": 5454,
      "ĠTiny": 5455,
      "Ġtremble": 5456,
      "ĠNutty": 5457,
      "Ġjogged": 5458,
      "Ġpupil": 5459,
      "Ġcape": 5460,
      "Ġblueberry": 5461,
      "Ġdoctors": 5462,
      "Ġrecognize": 5463,
      "Ġchef": 5464,
      "Ġstripes": 5465,
      "Ġsoaring": 5466,
      "Ġlemons": 5467,
      "Ġwondering": 5468,
      "ĠSomething": 5469,
      "Ġpunished": 5470,
      "Spot": 5471,
      "ĠLul": 5472,
      "ley": 5473,
      "Ġbleeding": 5474,
      "Ġstruggled": 5475,
      "ĠOw": 5476,
      "Ġgained": 5477,
      "Ġfetch": 5478,
      "rs": 5479,
      "Ġmachines": 5480,
      "ĠHop": 5481,
      "Ġfamil": 5482,
      "Ġexamined": 5483,
      "ĠTilly": 5484,
      "Ġarea": 5485,
      "Ġpiles": 5486,
      "ĠCarl": 5487,
      "Ġplanned": 5488,
      "Ġsitu": 5489,
      "Ġguessed": 5490,
      "Ġcomple": 5491,
      "Ġfreeze": 5492,
      "ĠBetty": 5493,
      "Ġnicer": 5494,
      "Ġmission": 5495,
      "Ġargued": 5496,
      "ĠAdam": 5497,
      "Ġdrag": 5498,
      "len": 5499,
      "Ġcaut": 5500,
      "Ġvictory": 5501,
      "âĢĿ.": 5502,
      "Ġripped": 5503,
      "Ġstealing": 5504,
      "Ġintroduc": 5505,
      "Ġstirring": 5506,
      "She": 5507,
      "Ġtugged": 5508,
      "Ġherbs": 5509,
      "Ġwagging": 5510,
      "Ġchallenge": 5511,
      "ĠHannah": 5512,
      "Ġbend": 5513,
      "ĠJessie": 5514,
      "Ġshivering": 5515,
      "Ġbare": 5516,
      "Ġkeys": 5517,
      "Daddy": 5518,
      "Ġsatisfied": 5519,
      "Ġincrease": 5520,
      "Ġstudied": 5521,
      "Ġproperly": 5522,
      "Ġfiremen": 5523,
      "Ġaccidents": 5524,
      "ding": 5525,
      "Ġexit": 5526,
      "Ġzooming": 5527,
      "Ġtune": 5528,
      "ĠMatt": 5529,
      "Ġinstruct": 5530,
      "Ġbunnies": 5531,
      "Ġgathering": 5532,
      "Ġwreck": 5533,
      "looking": 5534,
      "Ġwinning": 5535,
      "Or": 5536,
      "xu": 5537,
      "Ġmice": 5538,
      "Ġwinner": 5539,
      "Ġloaded": 5540,
      "Ġsi": 5541,
      "Ġpancakes": 5542,
      "Ġsupplies": 5543,
      "Ġtwirling": 5544,
      "Ġoutdoors": 5545,
      "ĠAunt": 5546,
      "ĠLulu": 5547,
      "ĠYes": 5548,
      "Ġpeel": 5549,
      "agull": 5550,
      "Ġfirefight": 5551,
      "ĠChirpy": 5552,
      "Ġdecorated": 5553,
      "Ġunderneath": 5554,
      "Ġpermit": 5555,
      "Ġneighbourhood": 5556,
      "Ġann": 5557,
      "ĠCar": 5558,
      "Ġmixing": 5559,
      "Ġrides": 5560,
      "Ġslapped": 5561,
      "Ġdeser": 5562,
      "Ġteasing": 5563,
      "Ġyelling": 5564,
      "Ġreleased": 5565,
      "Ġburrow": 5566,
      "Ġsights": 5567,
      "Ġsiren": 5568,
      "Ġtickets": 5569,
      "Ġpeaches": 5570,
      "uxu": 5571,
      "Ġweighed": 5572,
      "Ġseagull": 5573,
      "Ġbegin": 5574,
      "indy": 5575,
      "ĠSusan": 5576,
      "Ġpearl": 5577,
      "Ġdraws": 5578,
      "aky": 5579,
      "ĠSl": 5580,
      "Ġluxu": 5581,
      "ales": 5582,
      "ĠAbby": 5583,
      ".'": 5584,
      "ĠBubbles": 5585,
      "Mama": 5586,
      "Ġconfident": 5587,
      "Ġsneaked": 5588,
      "ica": 5589,
      "Ġmuffins": 5590,
      "Ġrealize": 5591,
      "Ġspiders": 5592,
      "Ġinch": 5593,
      "Ġinstructions": 5594,
      "Ġpinched": 5595,
      "Ġdam": 5596,
      "Ġshoulders": 5597,
      "Ġintroduce": 5598,
      "Ġcontro": 5599,
      "ĠOut": 5600,
      "Ġsolut": 5601,
      "Ġstamps": 5602,
      "Ġloving": 5603,
      "Ġbudge": 5604,
      "Ġfrosting": 5605,
      "Ġbaked": 5606,
      "Ġstruck": 5607,
      "Ġrelease": 5608,
      "Ġopin": 5609,
      "Ġpockets": 5610,
      "ĠDid": 5611,
      "Ġprinted": 5612,
      "Ġzero": 5613,
      "Ġcompetition": 5614,
      "ĠLike": 5615,
      "Ġbunch": 5616,
      "Ġcones": 5617,
      "Ġourselves": 5618,
      "Ġstudying": 5619,
      "Ġbeha": 5620,
      "Ġgrant": 5621,
      "Ġbroom": 5622,
      "Ġweb": 5623,
      "ĠMart": 5624,
      "Goodbye": 5625,
      "Ġlines": 5626,
      "nes": 5627,
      "Ġprunes": 5628,
      "Ġpastel": 5629,
      "Ġgiggling": 5630,
      "Ġemergen": 5631,
      "Happy": 5632,
      "Ġdecides": 5633,
      "Ġsides": 5634,
      "Ġtravell": 5635,
      "Ġstair": 5636,
      "ĠMir": 5637,
      "bbing": 5638,
      "Ġladybug": 5639,
      "ĠStop": 5640,
      "oed": 5641,
      "ena": 5642,
      "Ġstrings": 5643,
      "ais": 5644,
      "Ġtim": 5645,
      "Ġago": 5646,
      "Ġscurried": 5647,
      "ednes": 5648,
      "ednesday": 5649,
      "Ġrepeated": 5650,
      "Ġmarks": 5651,
      "ĠWednesday": 5652,
      "Ex": 5653,
      "Ġstitch": 5654,
      "Ġruler": 5655,
      "Ġclaps": 5656,
      "Ġdrift": 5657,
      "Ye": 5658,
      "ays": 5659,
      "Ġruin": 5660,
      "Ġpoking": 5661,
      "gers": 5662,
      "kins": 5663,
      "anta": 5664,
      "Ġmentioned": 5665,
      "Ġbrushes": 5666,
      "Ġmast": 5667,
      "Ġkeeps": 5668,
      "Ġsting": 5669,
      "Ġstretching": 5670,
      "ĠLou": 5671,
      "Ġcrowd": 5672,
      "owers": 5673,
      "Ġdemanded": 5674,
      "Ġtonight": 5675,
      "ĠBir": 5676,
      "Ġpears": 5677,
      "Ġtouching": 5678,
      "Ġwrites": 5679,
      "Ġneighbors": 5680,
      "Ġkicking": 5681,
      "Ġprints": 5682,
      "ĠJu": 5683,
      "icky": 5684,
      "ashed": 5685,
      "Ġprotected": 5686,
      "Ġsweeties": 5687,
      "Joh": 5688,
      "Ġribbons": 5689,
      "Ġgoodnight": 5690,
      "tiest": 5691,
      "Ġprettiest": 5692,
      "va": 5693,
      "hins": 5694,
      "bies": 5695,
      "ĠSanta": 5696,
      "ĠLinda": 5697,
      "Ġyouth": 5698,
      "ĠZoom": 5699,
      "ody": 5700,
      "zie": 5701,
      "ĠMomo": 5702,
      "uesday": 5703,
      "uctantly": 5704,
      "Ġparked": 5705,
      "Ġhorns": 5706,
      "Ġbuckets": 5707,
      "ĠTuesday": 5708,
      "Ġvent": 5709,
      "Ġsoaked": 5710,
      "jam": 5711,
      "Ġbouncy": 5712,
      "Ġproject": 5713,
      "Ġtext": 5714,
      "Ġforgi": 5715,
      "Ġbarely": 5716,
      "exp": 5717,
      "ĠLuke": 5718,
      "riage": 5719,
      "ĠBoth": 5720,
      "Ġeast": 5721,
      "Ġdiscovering": 5722,
      "Ġbeard": 5723,
      "ĠJeff": 5724,
      "icked": 5725,
      "Ġdent": 5726,
      "Ġcamping": 5727,
      "Ġresult": 5728,
      "Ġstole": 5729,
      "Ġtwinkling": 5730,
      "Ġguys": 5731,
      "Ġmovies": 5732,
      "Ġsurface": 5733,
      "Ġsorting": 5734,
      "Ġgazed": 5735,
      "Ġwest": 5736,
      "Ġsteep": 5737,
      "ĠAfterwards": 5738,
      "ĠKayla": 5739,
      "Ġbabies": 5740,
      "Ġexpect": 5741,
      "Ġpurred": 5742,
      "Ah": 5743,
      "Ġtexture": 5744,
      "Ġvowed": 5745,
      "Ġ1": 5746,
      "Ġpowers": 5747,
      "Ġinterest": 5748,
      "Ġshock": 5749,
      "Ġluxury": 5750,
      "expected": 5751,
      "Ġsilence": 5752,
      "zen": 5753,
      "Ġguns": 5754,
      "Ġcautious": 5755,
      "Ġapplauded": 5756,
      "Ġpebbles": 5757,
      "Ġloose": 5758,
      "thank": 5759,
      "Ġtickle": 5760,
      "Ġdolphins": 5761,
      "Ġcontrol": 5762,
      "Ġcatches": 5763,
      "edding": 5764,
      "Ġentire": 5765,
      "Ġacted": 5766,
      "Ġmuscles": 5767,
      "ern": 5768,
      "Ġurged": 5769,
      "Ġdragons": 5770,
      "Ġchewing": 5771,
      "Uh": 5772,
      "ĠHoppy": 5773,
      "Mia": 5774,
      "Ġdragged": 5775,
      "Ġunexpected": 5776,
      "ĠJenna": 5777,
      "ason": 5778,
      "Ġcompleted": 5779,
      "ĠLizzy": 5780,
      "Ġflat": 5781,
      "Ġfab": 5782,
      "Ġfabric": 5783,
      "Ġmittens": 5784,
      "une": 5785,
      "Ġhonk": 5786,
      "Ġemergency": 5787,
      "Ġrocking": 5788,
      "Ġblink": 5789,
      "Ġchips": 5790,
      "Ġseason": 5791,
      "eezing": 5792,
      "Ġcurtains": 5793,
      "ĠSuzie": 5794,
      "Ġimportance": 5795,
      "Ġdirection": 5796,
      "ĠCindy": 5797,
      "Ġintroduced": 5798,
      "Ġeight": 5799,
      "usted": 5800,
      "Ġshivered": 5801,
      "Ġbank": 5802,
      "Ġpatience": 5803,
      "ĠHa": 5804,
      "Ġreluctantly": 5805,
      "Ġstrike": 5806,
      "Ġhighest": 5807,
      "Ġwound": 5808,
      "Ġfigured": 5809,
      "Ġslim": 5810,
      "Ġachieve": 5811,
      "Ġsolution": 5812,
      "Ġscreaming": 5813,
      "Ġlibrarian": 5814,
      "Ġfrozen": 5815,
      "Ġcontest": 5816,
      "Ġrubbing": 5817,
      "Ġpouring": 5818,
      "Ġshelves": 5819,
      "Ġchases": 5820,
      "Ġrocked": 5821,
      "Ġcrumb": 5822,
      "Ġstaring": 5823,
      "Mum": 5824,
      "Ġsnail": 5825,
      "Ġreplac": 5826,
      "Ġtheirs": 5827,
      "Ġsorted": 5828,
      "Ġdrives": 5829,
      "Ġhugging": 5830,
      "Ġinclude": 5831,
      "ĠLena": 5832,
      "Remember": 5833,
      "Ġti": 5834,
      "Ġroaring": 5835,
      "ledge": 5836,
      "John": 5837,
      "esome": 5838,
      "Ġpoliceman": 5839,
      "Somet": 5840,
      "fit": 5841,
      "Ġmater": 5842,
      "Ġmateri": 5843,
      "Ġplanets": 5844,
      "Ġsafer": 5845,
      "Ġsituation": 5846,
      "itely": 5847,
      "Ġfoods": 5848,
      "Ġflags": 5849,
      "Ġgreet": 5850,
      "ĠDolly": 5851,
      "Ġusual": 5852,
      "Ġexha": 5853,
      "Ġknowledge": 5854,
      "Mummy": 5855,
      "ĠJon": 5856,
      "Ġcurly": 5857,
      "Ġshined": 5858,
      "Ġpassing": 5859,
      "Ġsighs": 5860,
      "Al": 5861,
      "Ġawesome": 5862,
      "Ġbalancing": 5863,
      "irts": 5864,
      "Ġtru": 5865,
      "Ġmatched": 5866,
      "Ġoutfit": 5867,
      "Ġdared": 5868,
      "Ġtowels": 5869,
      "Ġlied": 5870,
      "ults": 5871,
      "vin": 5872,
      "ĠJac": 5873,
      "though": 5874,
      "Ġzookeeper": 5875,
      "Ġplenty": 5876,
      "Ġpretends": 5877,
      "Ġtruly": 5878,
      "Ġbravery": 5879,
      "Ġwedding": 5880,
      "Ġheel": 5881,
      "Ġhomework": 5882,
      "Ġsausages": 5883,
      "Gra": 5884,
      "Ġslimy": 5885,
      "avi": 5886,
      "ĠPinky": 5887,
      "Ġcheering": 5888,
      "ĠTara": 5889,
      "Ġrainbows": 5890,
      "cuse": 5891,
      "jamas": 5892,
      "Ġgoals": 5893,
      "Ġcaused": 5894,
      "Ġpaintings": 5895,
      "ĠMira": 5896,
      "Just": 5897,
      "Ġpatted": 5898,
      "ĠEx": 5899,
      "Ġaccomplish": 5900,
      "Ġreaching": 5901,
      "Ġblooming": 5902,
      "ĠQuack": 5903,
      "Ġresting": 5904,
      "ĠAlways": 5905,
      "Ġthreat": 5906,
      "ĠSlow": 5907,
      "Excuse": 5908,
      "izzie": 5909,
      "Ġexhausted": 5910,
      "ĠMil": 5911,
      "Ġarguing": 5912,
      "ĠMon": 5913,
      "Ġge": 5914,
      "Ġspraying": 5915,
      "Ġwaiter": 5916,
      "Ġsweets": 5917,
      "Ġgrowling": 5918,
      "iar": 5919,
      "Ġstruggle": 5920,
      "Ġpacking": 5921,
      "Ġradishes": 5922,
      "...": 5923,
      "Ġpaddled": 5924,
      "ĠTwo": 5925,
      "immer": 5926,
      "Ġtraveled": 5927,
      "Ġgrowl": 5928,
      "ĠLizzie": 5929,
      "bert": 5930,
      "Ġworker": 5931,
      "Ġpout": 5932,
      "Ġstartled": 5933,
      "Ġmane": 5934,
      "ences": 5935,
      "Ġsticking": 5936,
      "Ġkneeled": 5937,
      "Ġsuitc": 5938,
      "Ġcubes": 5939,
      "Ġmarkers": 5940,
      "Ġrescued": 5941,
      "Ġsway": 5942,
      "Ġsled": 5943,
      "Ġguest": 5944,
      "Ġboo": 5945,
      "Ġbottles": 5946,
      "Ġlearns": 5947,
      "Ġsnugg": 5948,
      "Ġmatching": 5949,
      "Ġmotion": 5950,
      "Ġsinger": 5951,
      "Ġexpected": 5952,
      "ĠJacob": 5953,
      "Ġdusty": 5954,
      "hello": 5955,
      "Ġinviting": 5956,
      "Ġbead": 5957,
      "Ġreveal": 5958,
      "Ġwritten": 5959,
      "Ġcent": 5960,
      "Ġcuts": 5961,
      "Ġflavor": 5962,
      "Yeah": 5963,
      "Ġcreating": 5964,
      "Ġheav": 5965,
      "Ġrecorded": 5966,
      "Ġfart": 5967,
      "Ġslap": 5968,
      "ĠMick": 5969,
      "Ġbloomed": 5970,
      "aisies": 5971,
      "pite": 5972,
      "Ġarrive": 5973,
      "ĠPipp": 5974,
      "ĠJessica": 5975,
      "Ġtrembling": 5976,
      "Ġprincesses": 5977,
      "lee": 5978,
      "Ġspike": 5979,
      "ĠJulia": 5980,
      "Ġfir": 5981,
      "Ġregretted": 5982,
      "you": 5983,
      "Ġdaisies": 5984,
      "Ġmarriage": 5985,
      "Ġdisagree": 5986,
      "njoy": 5987,
      "Ġincluded": 5988,
      "Ġreplaced": 5989,
      "Ġprayer": 5990,
      "Ġchuck": 5991,
      "Ġpencils": 5992,
      "Ġlap": 5993,
      "ĠMo": 5994,
      "When": 5995,
      "Ġpots": 5996,
      "Ġworries": 5997,
      "Ġfirm": 5998,
      "Ġcompletely": 5999,
      "Ġremoved": 6000,
      "Ġtimer": 6001,
      "Ġorganizing": 6002,
      "Ġobserved": 6003,
      "Ġactivities": 6004,
      "Ġroads": 6005,
      "Ġwires": 6006,
      "Ġdarkness": 6007,
      "Ġopening": 6008,
      "Ġrelief": 6009,
      "Ġpajamas": 6010,
      "Ġventured": 6011,
      "Ġstare": 6012,
      "Ġreply": 6013,
      "Ġwasted": 6014,
      "Ġuses": 6015,
      "Ġcountryside": 6016,
      "Ġcott": 6017,
      "Ġquacked": 6018,
      "Ġleap": 6019,
      "Ġranger": 6020,
      "angled": 6021,
      "Ġfairies": 6022,
      "ĠMel": 6023,
      "Ġstorekeeper": 6024,
      "Ġbelly": 6025,
      "Ġfault": 6026,
      "Ġpartic": 6027,
      "ĠFox": 6028,
      "ĠJohnson": 6029,
      "Ġowners": 6030,
      "Ġleader": 6031,
      "Ġunf": 6032,
      "Ġlamb": 6033,
      "iding": 6034,
      "Ġbecoming": 6035,
      "Ġpolishing": 6036,
      "Ġworkers": 6037,
      "Ġstern": 6038,
      "vers": 6039,
      "Ġpenguins": 6040,
      "ora": 6041,
      "ctions": 6042,
      "Ġseesaw": 6043,
      "Ġkites": 6044,
      "Ġflames": 6045,
      "ĠFriend": 6046,
      "Ġagrees": 6047,
      "Ġpoems": 6048,
      "ĠSlowly": 6049,
      "Ġfaced": 6050,
      "Ġfolding": 6051,
      "Ġscales": 6052,
      "ĠNan": 6053,
      "Sometimes": 6054,
      "Ġsquealed": 6055,
      "Ġhelmets": 6056,
      "Ġeverybody": 6057,
      "ĠY": 6058,
      "Ġthro": 6059,
      "Ġhealed": 6060,
      "Ġlogs": 6061,
      "ĠLeave": 6062,
      "ĠChrist": 6063,
      "ĠFollow": 6064,
      "Ġthroat": 6065,
      "Ġvanish": 6066,
      "Ġmelting": 6067,
      "Ġopinion": 6068,
      "ĠLarry": 6069,
      "Ġwink": 6070,
      "ords": 6071,
      "Ġcrumbs": 6072,
      "hell": 6073,
      "Ġusually": 6074,
      "Ġdipped": 6075,
      "lings": 6076,
      "Ġscra": 6077,
      "Ġcash": 6078,
      "opes": 6079,
      "ids": 6080,
      "Ġtwinkle": 6081,
      "Ġden": 6082,
      "Ġknights": 6083,
      "Ġcomm": 6084,
      "Ġseems": 6085,
      "Ġast": 6086,
      "Ġstaying": 6087,
      "Ġcrabs": 6088,
      "Ġrisk": 6089,
      "Ġdentist": 6090,
      "ĠBye": 6091,
      "Ġripe": 6092,
      "ivery": 6093,
      "Ġlollipops": 6094,
      "asm": 6095,
      "Ġteaches": 6096,
      "Ġgroceries": 6097,
      "aze": 6098,
      "Ġpeeking": 6099,
      "Ġvalued": 6100,
      "Ġsnakes": 6101,
      "ĠJones": 6102,
      "ĠPut": 6103,
      "Ġpolished": 6104,
      "Ġcracked": 6105,
      "Ġtractor": 6106,
      "Ġscru": 6107,
      "Jack": 6108,
      "ĠWatch": 6109,
      "ĠSophia": 6110,
      "Ġrings": 6111,
      "araway": 6112,
      "ĠLau": 6113,
      "Ġprovided": 6114,
      "elle": 6115,
      "Ġunited": 6116,
      "Ġblows": 6117,
      "Ġfaraway": 6118,
      "Ġmarked": 6119,
      "ĠSorry": 6120,
      "Ġrubs": 6121,
      "Ġdesert": 6122,
      "Ġfreed": 6123,
      "Ġinterested": 6124,
      "Ġwinked": 6125,
      "Ġcautiously": 6126,
      "Ġprotecting": 6127,
      "Ġbalanced": 6128,
      "Ġcloses": 6129,
      "ĠBird": 6130,
      "ĠJune": 6131,
      "Ġpastries": 6132,
      "Ġmisses": 6133,
      "Ġyounger": 6134,
      "ĠMany": 6135,
      "Ġwandering": 6136,
      "Ġchuckled": 6137,
      "Ġforehead": 6138,
      "Ġlistens": 6139,
      "Ġsingle": 6140,
      "Ġwrist": 6141,
      "Ġparticular": 6142,
      "Ġfuzzy": 6143,
      "boo": 6144,
      "Ġdirections": 6145,
      "go": 6146,
      "mas": 6147,
      "ĠDoggy": 6148,
      "Ġbeads": 6149,
      "Ġactions": 6150,
      "Ġcrackers": 6151,
      "Ġrobb": 6152,
      "Ġsigned": 6153,
      "Ġhowever": 6154,
      "ĠPrin": 6155,
      "rance": 6156,
      "Ġsplashes": 6157,
      "ppers": 6158,
      "Ġbaker": 6159,
      "ĠAbbie": 6160,
      "ĠEl": 6161,
      "Ġroses": 6162,
      "ĠWithout": 6163,
      "Ġboom": 6164,
      "Ġwiggled": 6165,
      "Ġcough": 6166,
      "ĠBess": 6167,
      "hile": 6168,
      "Ġnaps": 6169,
      "Ġcopy": 6170,
      "Ġyesterday": 6171,
      "Ġgaze": 6172,
      "arling": 6173,
      "Ġfluttered": 6174,
      "ĠHappy": 6175,
      "Ġrolls": 6176,
      "Ġfilling": 6177,
      "Ġdelivery": 6178,
      "igi": 6179,
      "Ġsnowballs": 6180,
      "dies": 6181,
      "Ġroots": 6182,
      "Ġrestored": 6183,
      "Ġsuitcase": 6184,
      "Ġslam": 6185,
      "Ġstem": 6186,
      "Ġcous": 6187,
      "Ġswooped": 6188,
      "ĠLaura": 6189,
      "Ġswirl": 6190,
      "ĠEverybody": 6191,
      "Ġtipt": 6192,
      "Ġconn": 6193,
      "Ġsomebody": 6194,
      "Ġtwin": 6195,
      "Ġitchy": 6196,
      "Tommy": 6197,
      "Ġsweat": 6198,
      "ĠPam": 6199,
      "abel": 6200,
      "Ġtallest": 6201,
      "Ġrefle": 6202,
      "Ġbacked": 6203,
      "Ġtrips": 6204,
      "Ġstroll": 6205,
      "Bad": 6206,
      "Ġpastels": 6207,
      "ĠChristmas": 6208,
      "Ġcelebration": 6209,
      "Ġdetermination": 6210,
      "anes": 6211,
      "ĠKeep": 6212,
      "Ġbumpy": 6213,
      "Ġcashier": 6214,
      "bbly": 6215,
      "ddled": 6216,
      "Ġdarker": 6217,
      "Ġremote": 6218,
      "oline": 6219,
      "Ġawake": 6220,
      "Ġlined": 6221,
      "Ġspeaking": 6222,
      "Ġpedals": 6223,
      "Ġbars": 6224,
      "ĠNothing": 6225,
      "ormed": 6226,
      "Ġfroze": 6227,
      "Ġsecure": 6228,
      "Then": 6229,
      "ĠGigi": 6230,
      "Ġphotos": 6231,
      "Ġpiggy": 6232,
      "ĠMickey": 6233,
      "Ġcause": 6234,
      "ĠSparky": 6235,
      "Ġnect": 6236,
      "ility": 6237,
      "Ġliqu": 6238,
      "ĠNick": 6239,
      "Ġnectar": 6240,
      "ĠâĢĺ": 6241,
      "Ġwow": 6242,
      "ĠPandy": 6243,
      "Ġsilent": 6244,
      "ĠSque": 6245,
      "ĠBeing": 6246,
      "Ġrecording": 6247,
      "oys": 6248,
      "âĢĶ": 6249,
      "Ġknees": 6250,
      "ĠJazz": 6251,
      "Ġcomplaining": 6252,
      "ĠExc": 6253,
      "Ġsneaky": 6254,
      "Ġhi": 6255,
      "?\",": 6256,
      "Ġwears": 6257,
      "Ġentrance": 6258,
      "Ġaccomplishment": 6259,
      "Ġhealth": 6260,
      "Ġdelivered": 6261,
      "Ġinsp": 6262,
      "Ġrockets": 6263,
      "Run": 6264,
      "Ġglee": 6265,
      "Ġacting": 6266,
      "Ġpleasure": 6267,
      "ĠMa": 6268,
      "ĠEnjoy": 6269,
      "Ġvideos": 6270,
      "Ġty": 6271,
      "Ġmiles": 6272,
      "yond": 6273,
      "Ġbeyond": 6274,
      "Ġaff": 6275,
      "esmer": 6276,
      "Ġopp": 6277,
      "boat": 6278,
      "Ġcoloured": 6279,
      "Ġtricked": 6280,
      "Ġmesmer": 6281,
      "Ġstays": 6282,
      "sequ": 6283,
      "iki": 6284,
      "ĠJay": 6285,
      "umm": 6286,
      "atches": 6287,
      "Ġnoon": 6288,
      "Ġconsequ": 6289,
      "ĠBuzzy": 6290,
      "Ġcheeks": 6291,
      "ĠBee": 6292,
      "Ġtickled": 6293,
      "Ġsib": 6294,
      "Ġafterwards": 6295,
      "ĠExcited": 6296,
      "Ġhissed": 6297,
      "ĠDays": 6298,
      "ĠEmmy": 6299,
      "Ġinsects": 6300,
      "Ġfarther": 6301,
      "Ġjoking": 6302,
      "Ġattack": 6303,
      "Ġrule": 6304,
      "Ġburst": 6305,
      "Ġbowls": 6306,
      "Ġcovers": 6307,
      "Ġscaring": 6308,
      "Ġcolored": 6309,
      "Ġstolen": 6310,
      "affes": 6311,
      "Ġsandcastles": 6312,
      "Ġsobbed": 6313,
      "Ġsense": 6314,
      "ĠMikey": 6315,
      "ĠStella": 6316,
      "Ġtricky": 6317,
      "Ġtalented": 6318,
      "ĠMilo": 6319,
      "Ġcalmed": 6320,
      "ky": 6321,
      "ĠSqu": 6322,
      "Ġmasks": 6323,
      "Fine": 6324,
      "Ġgiraffes": 6325,
      "Ġsmarter": 6326,
      "Ġliquid": 6327,
      "ĠPrincess": 6328,
      "?'": 6329,
      "Ġglasses": 6330,
      "Ġadding": 6331,
      "ĠRobbie": 6332,
      "Ġdeal": 6333,
      "Ġcandies": 6334,
      "Ġinstrum": 6335,
      "ĠEls": 6336,
      "Ġtangled": 6337,
      "Ġindeed": 6338,
      "Ġscarves": 6339,
      "Ġachieved": 6340,
      "Ġhandful": 6341,
      "ths": 6342,
      "Ġleading": 6343,
      "Ġchoices": 6344,
      "Ġpause": 6345,
      "ĠMaya": 6346,
      "Ġyourselves": 6347,
      "ossible": 6348,
      "Ġbumps": 6349,
      "weet": 6350,
      "rious": 6351,
      "Ġshirts": 6352,
      "Ġconsequences": 6353,
      "igers": 6354,
      "Ġimpossible": 6355,
      "Ġbadge": 6356,
      "choo": 6357,
      "Ġbehavi": 6358,
      "Ġmixture": 6359,
      "ĠGet": 6360,
      "Ġreads": 6361,
      "Ġhesitated": 6362,
      "ept": 6363,
      "Ġlung": 6364,
      "ouch": 6365,
      "Ġdarling": 6366,
      "Ġweeping": 6367,
      "Ġmagnets": 6368,
      "ĠRobert": 6369,
      "Ġexplorers": 6370,
      "ĠTess": 6371,
      "iled": 6372,
      "ĠOlive": 6373,
      "ners": 6374,
      "ĠChris": 6375,
      "Shh": 6376,
      "Ġgracefully": 6377,
      "Ro": 6378,
      "Ġbatteries": 6379,
      "Ġrecommended": 6380,
      "Ġkicks": 6381,
      "coat": 6382,
      "Ġexperien": 6383,
      "anging": 6384,
      "Ġseeker": 6385,
      "vest": 6386,
      "Ġpaddle": 6387,
      "aren": 6388,
      "ĠRy": 6389,
      "brush": 6390,
      "Ġclowns": 6391,
      "ĠSnugg": 6392,
      "Ġbakery": 6393,
      "Ġseashell": 6394,
      "urry": 6395,
      "Ġsalty": 6396,
      "Ġstroked": 6397,
      "ĠMartha": 6398,
      "Ġmushrooms": 6399,
      "Ġfirefighters": 6400,
      "ĠRobby": 6401,
      "atul": 6402,
      "Ġswept": 6403,
      "Ġcomplained": 6404,
      "Ġcust": 6405,
      "ĠPl": 6406,
      "Ġwipes": 6407,
      "Ġdeserve": 6408,
      "Ġimproved": 6409,
      "Ġhider": 6410,
      "rig": 6411,
      "Ġobjects": 6412,
      "Ġcans": 6413,
      "ĠPo": 6414,
      "Those": 6415,
      "Ġbeginning": 6416,
      "Ġseven": 6417,
      "ĠGranny": 6418,
      "ĠZip": 6419,
      "Whe": 6420,
      "ĠDr": 6421,
      "Ġflapping": 6422,
      "Ġparties": 6423,
      "obody": 6424,
      "itches": 6425,
      "Ġclick": 6426,
      "Ġthorn": 6427,
      "Ġsteer": 6428,
      "Ġraincoat": 6429,
      "tle": 6430,
      "Ġcustom": 6431,
      "ĠKaren": 6432,
      "Ġknocks": 6433,
      "Ġhearing": 6434,
      "Ġtigers": 6435,
      "Ġteased": 6436,
      "Ġtravelled": 6437,
      "Ġsnuck": 6438,
      "Ġthird": 6439,
      "Ġdots": 6440,
      "elia": 6441,
      "Ġbasement": 6442,
      "Ġartist": 6443,
      "ĠRock": 6444,
      "Ġsmiley": 6445,
      "ĠSnuggles": 6446,
      "ĠCu": 6447,
      "ĠThanks": 6448,
      "Ġcupcakes": 6449,
      "ans": 6450,
      "Ġbeam": 6451,
      "Ġyells": 6452,
      "Ġsnatched": 6453,
      "Ġfever": 6454,
      "Ġsiblings": 6455,
      "Ġseconds": 6456,
      "Ġfluttering": 6457,
      "ĠRyan": 6458,
      "step": 6459,
      "Ġhoriz": 6460,
      "Ġjackets": 6461,
      "Ġperformance": 6462,
      "Ġmarker": 6463,
      "indr": 6464,
      "Ġheading": 6465,
      "Ġdrums": 6466,
      "Ġhallway": 6467,
      "come": 6468,
      "pare": 6469,
      "ĠAbi": 6470,
      "no": 6471,
      "Ġlighter": 6472,
      "Ġhorizon": 6473,
      "Ġbedtime": 6474,
      "igning": 6475,
      "Ġannoy": 6476,
      "Ġgems": 6477,
      "ĠJacky": 6478,
      "Ġraindr": 6479,
      "ĠChe": 6480,
      "Ġconcer": 6481,
      "Ġlett": 6482,
      "Ġneither": 6483,
      "ĠWater": 6484,
      "Ġruining": 6485,
      "Next": 6486,
      "ĠMabel": 6487,
      "Ġdollhouse": 6488,
      "ĠAlong": 6489,
      "Ġrivers": 6490,
      "ĠSim": 6491,
      "Ġpuppies": 6492,
      "Ġscrubbed": 6493,
      "ĠSc": 6494,
      "Ġcelebrating": 6495,
      "Ġlettuce": 6496,
      "Ġamong": 6497,
      "Ġcreamy": 6498,
      "iles": 6499,
      "Ġbuying": 6500,
      "Ġwrapping": 6501,
      "rigued": 6502,
      "Ġfamilies": 6503,
      "ĠJanie": 6504,
      "Ġrumble": 6505,
      "band": 6506,
      "ivity": 6507,
      "Ġdrifted": 6508,
      "river": 6509,
      "ades": 6510,
      "Ġwins": 6511,
      "alph": 6512,
      "Ġpaying": 6513,
      "Ġtasks": 6514,
      "Ġwidened": 6515,
      "umbling": 6516,
      "immering": 6517,
      "Ġhides": 6518,
      "Ġrusty": 6519,
      "atur": 6520,
      "cers": 6521,
      "Ġpeacefully": 6522,
      "Ġrewarded": 6523,
      "Ġlun": 6524,
      "ounce": 6525,
      "Ġbehaved": 6526,
      "uzz": 6527,
      "Ġuns": 6528,
      "Ġscratches": 6529,
      "Ġtreehouse": 6530,
      "fall": 6531,
      "Ġcuddly": 6532,
      "Ġfact": 6533,
      "iece": 6534,
      "Ġneedles": 6535,
      "Ġcreativity": 6536,
      "Ġlower": 6537,
      "Ġrepa": 6538,
      "ĠKiki": 6539,
      "Ġech": 6540,
      "Ġsource": 6541,
      "ĠRover": 6542,
      "Ġcor": 6543,
      "ĠJackie": 6544,
      "Ch": 6545,
      "ĠFinn": 6546,
      "ĠBinky": 6547,
      "Ġarrows": 6548,
      "Ġwilling": 6549,
      "ĠRalph": 6550,
      "Ġplayers": 6551,
      "Ġgrandpare": 6552,
      "Ġtemper": 6553,
      "Ġshrinking": 6554,
      "ĠGina": 6555,
      "Ġincluding": 6556,
      "Ġfears": 6557,
      "Ġchoo": 6558,
      "Ġgranted": 6559,
      "itched": 6560,
      "Ġlosing": 6561,
      "jo": 6562,
      "oey": 6563,
      "Ġpassen": 6564,
      "Ġimagining": 6565,
      "Ġtiptoed": 6566,
      "Ġrepaired": 6567,
      "Ġdef": 6568,
      "Ġcreations": 6569,
      "Ġchop": 6570,
      "Ġtapped": 6571,
      "Ġsprinkled": 6572,
      "ongr": 6573,
      "Ġlimes": 6574,
      "ĠGoodbye": 6575,
      "ael": 6576,
      "Ġrising": 6577,
      "Ġaren": 6578,
      "Ġgrassy": 6579,
      "ĠDuring": 6580,
      "Ġseparated": 6581,
      "ĠSadie": 6582,
      "Ġgross": 6583,
      "Ġtempt": 6584,
      "Ġaud": 6585,
      "ded": 6586,
      "hog": 6587,
      "Ġchefs": 6588,
      "cus": 6589,
      "ĠRemember": 6590,
      "ĠMarie": 6591,
      "Ġspong": 6592,
      "Ġstomped": 6593,
      "Ġdamage": 6594,
      "ongratul": 6595,
      "Ġminerals": 6596,
      "Great": 6597,
      "Ġscrewd": 6598,
      "Ġswimsuit": 6599,
      "Ġstung": 6600,
      "ĠNobody": 6601,
      "Ġtiss": 6602,
      "Ġgrabbing": 6603,
      "Ġpans": 6604,
      "ĠJudy": 6605,
      "Ġunpacked": 6606,
      "ĠSimon": 6607,
      "cl": 6608,
      "Ġpeppers": 6609,
      "Ġsquares": 6610,
      "itude": 6611,
      "Ġhesitant": 6612,
      "Ġdecorating": 6613,
      "Ġonions": 6614,
      "ĠMaddie": 6615,
      "Ġbackwards": 6616,
      "Ġpouted": 6617,
      "Ġcoup": 6618,
      "ntil": 6619,
      "ishy": 6620,
      "Time": 6621,
      "Ġcowb": 6622,
      "pr": 6623,
      "Ġearn": 6624,
      "Ġraindrops": 6625,
      "Ġheavier": 6626,
      "Ġprinting": 6627,
      "ments": 6628,
      "Ġmaterials": 6629,
      "ichael": 6630,
      "Ġplanning": 6631,
      "Ġtramp": 6632,
      "ĠTodd": 6633,
      "Ġbeloved": 6634,
      "Ġdiving": 6635,
      "Ġwrink": 6636,
      "Have": 6637,
      "cope": 6638,
      "Ġgrowls": 6639,
      "Ġchip": 6640,
      "ĠUntil": 6641,
      "Ġslower": 6642,
      "Ġmer": 6643,
      "ĠFlop": 6644,
      "Ġpromises": 6645,
      "Ġpointy": 6646,
      "ĠMichael": 6647,
      "Ġsailboat": 6648,
      "Ġrustling": 6649,
      "Ġscrewdriver": 6650,
      "Ġavoid": 6651,
      "Ġhedgehog": 6652,
      "ĠSqueaky": 6653,
      "ĠSince": 6654,
      "Ġgobbled": 6655,
      "Ġrecipe": 6656,
      "Ġcenter": 6657,
      "Ġaudience": 6658,
      "ĠQ": 6659,
      "Ġneighbours": 6660,
      "ĠFar": 6661,
      "Meow": 6662,
      "eds": 6663,
      "Ġsnowmen": 6664,
      "Today": 6665,
      "Ġsurroundings": 6666,
      "Ġwiping": 6667,
      "Ġweekend": 6668,
      "ĠBluey": 6669,
      "sty": 6670,
      "Ġblocking": 6671,
      "yes": 6672,
      "Ġforgiven": 6673,
      "Ġwobbled": 6674,
      "Ġcousin": 6675,
      "Ġtemperature": 6676,
      "Ġhus": 6677,
      "Ġarr": 6678,
      "ĠCra": 6679,
      "ĠEarth": 6680,
      "Ġslammed": 6681,
      "Ġtouc": 6682,
      "Ġslices": 6683,
      "ably": 6684,
      "Ġnoses": 6685,
      "Oops": 6686,
      "Ġrip": 6687,
      "Ġrefu": 6688,
      "ĠLia": 6689,
      "Ġtrampoline": 6690,
      "Ġstool": 6691,
      "int": 6692,
      "Ġwindy": 6693,
      "Ġdreamt": 6694,
      "Ġcorners": 6695,
      "Ġdiscussed": 6696,
      "Yummy": 6697,
      "Ġpecked": 6698,
      "Ġhelpers": 6699,
      "ueen": 6700,
      "Ġdesigned": 6701,
      "itted": 6702,
      "Ġafford": 6703,
      "Ġcouple": 6704,
      "Roar": 6705,
      "Ġswans": 6706,
      "Lila": 6707,
      "unched": 6708,
      "!âĢĿ.": 6709,
      "Ew": 6710,
      "Ġage": 6711,
      "Ġache": 6712,
      "arrow": 6713,
      "Ġdads": 6714,
      "ccoon": 6715,
      "Ġraccoon": 6716,
      "child": 6717,
      "Ġwag": 6718,
      "ĠZoey": 6719,
      "Ġrequested": 6720,
      "Ġsports": 6721,
      "Ġsponge": 6722,
      "Ġhitting": 6723,
      "Le": 6724,
      "Ġfeast": 6725,
      "Ġforks": 6726,
      "Ġstreets": 6727,
      "iley": 6728,
      "Ġcuriously": 6729,
      "Ġmeals": 6730,
      "Ġornaments": 6731,
      "Ġaside": 6732,
      "Ġtissue": 6733,
      "ĠBack": 6734,
      "Ġsunflowers": 6735,
      "Ġtails": 6736,
      "Ġdances": 6737,
      "Ġplans": 6738,
      "ĠZara": 6739,
      "Ġwarnings": 6740,
      "Ġdet": 6741,
      "Ġstain": 6742,
      "endy": 6743,
      "Ġsparks": 6744,
      "Ġprett": 6745,
      "Ġreflection": 6746,
      "cky": 6747,
      "Ġsnowfl": 6748,
      "ĠAlthough": 6749,
      "Ġgri": 6750,
      "Ġfamiliar": 6751,
      "Ġduckling": 6752,
      "Ġspreading": 6753,
      "ĠAmelia": 6754,
      "aker": 6755,
      "Ġpraying": 6756,
      "Ġgreeted": 6757,
      "Ġsale": 6758,
      "Ġbreathed": 6759,
      "ition": 6760,
      "ido": 6761,
      "ĠThose": 6762,
      "Ġmoo": 6763,
      "ĠQueen": 6764,
      "Ġshops": 6765,
      "Ġvanilla": 6766,
      "Ġbows": 6767,
      "Ġpotion": 6768,
      "Ġscrews": 6769,
      "osen": 6770,
      "Ġchosen": 6771,
      "Ġshaped": 6772,
      "Rex": 6773,
      "Ġgasp": 6774,
      "Ġhour": 6775,
      "ĠHoot": 6776,
      "Ġleaning": 6777,
      "Ġgardener": 6778,
      "Ġdollars": 6779,
      "ĠLi": 6780,
      "Ġtouches": 6781,
      "Ġprettier": 6782,
      "ĠOur": 6783,
      "Ġcoloring": 6784,
      "Grandma": 6785,
      "Ġastron": 6786,
      "Ġremembering": 6787,
      "Ġintrigued": 6788,
      "Ġthrown": 6789,
      "Ġgrandchild": 6790,
      "Ġswords": 6791,
      "Ġhops": 6792,
      "Ġtunnels": 6793,
      "Ġadult": 6794,
      "Ġenthusi": 6795,
      "Ġtwice": 6796,
      "--": 6797,
      "ĠAsh": 6798,
      "otten": 6799,
      "Ġenthusiasm": 6800,
      "ertain": 6801,
      "Ġgrandparents": 6802,
      "arac": 6803,
      "Ġcorre": 6804,
      "Ġastronaut": 6805,
      "ĠMeg": 6806,
      "Ġsuperheroes": 6807,
      "Ġhusband": 6808,
      "Ġsailors": 6809,
      "fly": 6810,
      "Ġmagician": 6811,
      "ĠStar": 6812,
      "Ġreason": 6813,
      "Ġzipping": 6814,
      "Ġwishing": 6815,
      "Ġspikes": 6816,
      "Ġskunk": 6817,
      "Ġguests": 6818,
      "ĠWendy": 6819,
      "Ġchanging": 6820,
      "Ġforgets": 6821,
      "Ġforgetting": 6822,
      "Ġmuscle": 6823,
      "Ġdod": 6824,
      "Ġ10": 6825,
      "Woof": 6826,
      "Ġborrowed": 6827,
      "Ġleast": 6828,
      "Ġflight": 6829,
      "ĠFriends": 6830,
      "Ġwoof": 6831,
      "Ġrotten": 6832,
      "ently": 6833,
      "Ġdaring": 6834,
      "Ġreass": 6835,
      "ĠMomma": 6836,
      "Ġspoonful": 6837,
      "Ġencourag": 6838,
      "shions": 6839,
      "Ġsending": 6840,
      "Ġbodies": 6841,
      "mallow": 6842,
      "ĠSun": 6843,
      "Ġscamp": 6844,
      "Ġneare": 6845,
      "arshmallow": 6846,
      "ĠFido": 6847,
      "stick": 6848,
      "Ġflavors": 6849,
      "Ġpens": 6850,
      "Ġmesmerized": 6851,
      "ĠFu": 6852,
      "Ġcounts": 6853,
      "Ġbuzzed": 6854,
      "Ġcharac": 6855,
      "Ġcharacter": 6856,
      "Ġsnuggle": 6857,
      "ounced": 6858,
      "Ġheroes": 6859,
      "Ġhopeful": 6860,
      "Ġwraps": 6861,
      "Our": 6862,
      "wk": 6863,
      "Ġnine": 6864,
      "Ġgrows": 6865,
      "Ġneatly": 6866,
      "irrel": 6867,
      "oni": 6868,
      "Ġsteady": 6869,
      "ĠListen": 6870,
      "Ġhandsome": 6871,
      "Ġfeeding": 6872,
      "Ġnibb": 6873,
      "Ġcond": 6874,
      "bba": 6875,
      "Ġdelivering": 6876,
      "Ġseaw": 6877,
      "Ġtodd": 6878,
      "Ġposs": 6879,
      "Ġpolitely": 6880,
      "ĠQuick": 6881,
      "ĠDavey": 6882,
      "Ġnapkins": 6883,
      "Whee": 6884,
      "llen": 6885,
      "Boo": 6886,
      "Ġsneezing": 6887,
      "Ġoh": 6888,
      "Ġplucked": 6889,
      "Ġzebras": 6890,
      "Ġalien": 6891,
      "ĠAli": 6892,
      "Ġmints": 6893,
      "Ġsuffering": 6894,
      "Ġmarshmallow": 6895,
      "Ġposter": 6896,
      "Ġonward": 6897,
      "years": 6898,
      "Ġcrashing": 6899,
      "ĠMaddy": 6900,
      "Ġdived": 6901,
      "Ġwarmer": 6902,
      "the": 6903,
      "ĠFrog": 6904,
      "Ġdefe": 6905,
      "Ġhonked": 6906,
      "Ġlifts": 6907,
      "antha": 6908,
      "Ġembarrass": 6909,
      "ection": 6910,
      "ĠFarmer": 6911,
      "ĠDe": 6912,
      "ĠUnder": 6913,
      "Ġcrew": 6914,
      "Ġmatters": 6915,
      "Ġunsure": 6916,
      "ĠFrosty": 6917,
      "Ġplain": 6918,
      "Ġrefreshing": 6919,
      "Some": 6920,
      "Ġbaths": 6921,
      "Ġstudents": 6922,
      "Ġincreased": 6923,
      "ĠBirthday": 6924,
      "Ġlungs": 6925,
      "ĠRuth": 6926,
      "Ġproper": 6927,
      "Ġstands": 6928,
      "Ġscen": 6929,
      "Ġwhispers": 6930,
      "ĠHolly": 6931,
      "ĠDes": 6932,
      "Ġdip": 6933,
      "Ġpreparing": 6934,
      "Ġfocu": 6935,
      "Ġjoining": 6936,
      "allowed": 6937,
      "Ġswallowed": 6938,
      "ĠSamantha": 6939,
      "Ġexpress": 6940,
      "meal": 6941,
      "Ġrespond": 6942,
      "Ġseaweed": 6943,
      "ĠMouse": 6944,
      "Ġropes": 6945,
      "Ġglued": 6946,
      "ĠBessie": 6947,
      "aster": 6948,
      "Ġthud": 6949,
      "Ġamount": 6950,
      "Ġperformed": 6951,
      "Ġdie": 6952,
      "ĠPatch": 6953,
      "Ġpresses": 6954,
      "Ġmerry": 6955,
      "Ġpostman": 6956,
      "Ġoatmeal": 6957,
      "Ġstarfish": 6958,
      "Ġtriangles": 6959,
      "Ġwatering": 6960,
      "Ġhawk": 6961,
      "Ġlessons": 6962,
      "Ġpuppet": 6963,
      "Ġbiting": 6964,
      "Ġfocused": 6965,
      "vant": 6966,
      "while": 6967,
      "Ġtoaster": 6968,
      "ĠBaa": 6969,
      "Ġadults": 6970,
      "Ġconfl": 6971,
      "Ġfreedom": 6972,
      "Ġwobbly": 6973,
      "Ġleads": 6974,
      "Ġcau": 6975,
      "Ġtrembled": 6976,
      "ĠSquirrel": 6977,
      "Ġtoddler": 6978,
      "ĠSof": 6979,
      "Ġtrot": 6980,
      "Ġrushing": 6981,
      "Ġwaddled": 6982,
      "Ġdancers": 6983,
      "Ġgeese": 6984,
      "Ġcushions": 6985,
      "Ġscraped": 6986,
      "ĠBubba": 6987,
      "Ġfirmly": 6988,
      "Ġsniffs": 6989,
      "Ġpuff": 6990,
      "Ġslips": 6991,
      "Ġtalks": 6992,
      "Ġbully": 6993,
      "ĠLove": 6994,
      "Ġwrigg": 6995,
      "Ġsofter": 6996,
      "Ġresisted": 6997,
      "Ġfirefly": 6998,
      "Ġpanicked": 6999,
      "Ġnecklaces": 7000,
      "ados": 7001,
      "Ġev": 7002,
      "Ġflas": 7003,
      "Ġpops": 7004,
      "Ġencouraging": 7005,
      "iona": 7006,
      "Ġdropping": 7007,
      "Ġtables": 7008,
      "Ġfrowning": 7009,
      "ĠTuna": 7010,
      "Ġwiggle": 7011,
      "bird": 7012,
      "Ġdrawers": 7013,
      "Ġtested": 7014,
      "Ġworn": 7015,
      "onna": 7016,
      "ĠRay": 7017,
      "Ġwaterfall": 7018,
      "Ġjoyful": 7019,
      "Ġhumans": 7020,
      "Ġnervously": 7021,
      "cake": 7022,
      "rey": 7023,
      "ĠFreddie": 7024,
      "ĠHoney": 7025,
      "ĠOnly": 7026,
      "Ġblast": 7027,
      "Ġdrivers": 7028,
      "Lucy": 7029,
      "Ġfaded": 7030,
      "ippy": 7031,
      "ĠMean": 7032,
      "lets": 7033,
      "Ġdrawn": 7034,
      "Ġquarreling": 7035,
      "ĠEva": 7036,
      "Ġappreciation": 7037,
      "Ġscampered": 7038,
      "Ġrout": 7039,
      "Ġexplo": 7040,
      "retty": 7041,
      "Bun": 7042,
      "Ġpigeons": 7043,
      "Ġthroughout": 7044,
      "Ġrespected": 7045,
      "ĠStay": 7046,
      "ĠSofia": 7047,
      "ĠFlopsy": 7048,
      "Ġstacked": 7049,
      "Ġocc": 7050,
      "ĠMina": 7051,
      "Ġleapt": 7052,
      "Ġlifting": 7053,
      "ĠAng": 7054,
      "Bob": 7055,
      "Ġsqueak": 7056,
      "ĠKaty": 7057,
      "ĠFe": 7058,
      "Fo": 7059,
      "Ġthoughts": 7060,
      "Ġtwinkled": 7061,
      "Ġscient": 7062,
      "Ġelf": 7063,
      "Ġspat": 7064,
      "roken": 7065,
      "Ġfirefighter": 7066,
      "Ġpours": 7067,
      "Ġpennies": 7068,
      "ĠMeanwhile": 7069,
      "ĠFiona": 7070,
      "Ġdresser": 7071,
      "ĠMegan": 7072,
      "Ġrobber": 7073,
      "Ġmaster": 7074,
      "Ġcoc": 7075,
      "Ġscientist": 7076,
      "ushed": 7077,
      "but": 7078,
      "Ġnotes": 7079,
      "Ġpolar": 7080,
      "Ġbravest": 7081,
      "ears": 7082,
      "Ġavocados": 7083,
      "rrr": 7084,
      "Ġcraft": 7085,
      "Ġcolder": 7086,
      "Ġfits": 7087,
      "ĠIm": 7088,
      "Ġovercome": 7089,
      "Ġmonths": 7090,
      "fire": 7091,
      "Ġstrongest": 7092,
      "Ġplaytime": 7093,
      "ĠFuzzy": 7094,
      "Ġgonna": 7095,
      "Listen": 7096,
      "Ġsan": 7097,
      "Ġechoed": 7098,
      "ca": 7099,
      "Ġcertain": 7100,
      "Ġnur": 7101,
      "Ġcosy": 7102,
      "Ġmunch": 7103,
      "ĠUp": 7104,
      "oke": 7105,
      "Ġsweetest": 7106,
      "ĠTake": 7107,
      "Ġplayroom": 7108,
      "Ġpeck": 7109,
      "Ġnood": 7110,
      "Ġwept": 7111,
      "ĠSpl": 7112,
      "ĠPh": 7113,
      "bage": 7114,
      "Ġperforming": 7115,
      "Ġwakes": 7116,
      "Ġgarbage": 7117,
      "Mine": 7118,
      "Ġspins": 7119,
      "Ġgest": 7120,
      "Ġconvers": 7121,
      "hew": 7122,
      "Ġtossed": 7123,
      "Ġscored": 7124,
      "Ġprove": 7125,
      "Ġprob": 7126,
      "Ġdesigns": 7127,
      "Ġbells": 7128,
      "ĠMae": 7129,
      "cher": 7130,
      "ĠJojo": 7131,
      "ĠOwl": 7132,
      "Ġprobably": 7133,
      "eezes": 7134,
      "rying": 7135,
      "Ġsank": 7136,
      "Ġmanag": 7137,
      "Ġhaird": 7138,
      "Ġpumpkins": 7139,
      "undred": 7140,
      "Ġforgiving": 7141,
      "please": 7142,
      "Ġsqueezing": 7143,
      "Ġguide": 7144,
      "broken": 7145,
      "ĠFire": 7146,
      "Ġflown": 7147,
      "Ġrobots": 7148,
      "bbling": 7149,
      "iment": 7150,
      "ĠJonny": 7151,
      "Ġcausing": 7152,
      "Ġspices": 7153,
      "Ġtricycle": 7154,
      "Ġhealing": 7155,
      "ĠDespite": 7156,
      "Ġtighter": 7157,
      "Very": 7158,
      "Ġcobwebs": 7159,
      "Ġcongratul": 7160,
      "Ġbehaving": 7161,
      "?!\"": 7162,
      "urprise": 7163,
      "Ġyielded": 7164,
      "ading": 7165,
      "Ġmarshmallows": 7166,
      "Ġshown": 7167,
      "...\"": 7168,
      "Ġexplorer": 7169,
      "fus": 7170,
      "Ġsquishy": 7171,
      "ĠDani": 7172,
      "Ġsadd": 7173,
      "Ġoffic": 7174,
      "Ġpound": 7175,
      "Ġblinking": 7176,
      "Ġreversed": 7177,
      "Ġpassengers": 7178,
      "Like": 7179,
      "Ġnapping": 7180,
      "ĠYesterday": 7181,
      "ilda": 7182,
      "Ġangels": 7183,
      "Ġaimed": 7184,
      "Ġpays": 7185,
      "ĠCurious": 7186,
      "ĠBecause": 7187,
      "Ġgiggles": 7188,
      "Ġmate": 7189,
      "Ġdistract": 7190,
      "Ġ2": 7191,
      "upt": 7192,
      "Ġconflict": 7193,
      "Ġties": 7194,
      "Follow": 7195,
      "Ġclues": 7196,
      "Ġdoorway": 7197,
      "Ġinj": 7198,
      "Ġwider": 7199,
      "ammy": 7200,
      "Ġunw": 7201,
      "Ġpaintbrush": 7202,
      "Ġgrandd": 7203,
      "ilted": 7204,
      "Ġnearly": 7205,
      "Ġreun": 7206,
      "Ġsewing": 7207,
      "alloween": 7208,
      "found": 7209,
      "Ġnuzz": 7210,
      "Ġpassports": 7211,
      "Ġinstruments": 7212,
      "ĠMaisy": 7213,
      "Ġheartbroken": 7214,
      "Ġbrushing": 7215,
      "Ġaction": 7216,
      "Ġappreciated": 7217,
      "ĠWell": 7218,
      "ĠStill": 7219,
      "Ġloading": 7220,
      "mates": 7221,
      "Alright": 7222,
      "Ġsoaking": 7223,
      "ĠBirdy": 7224,
      "Ġcottage": 7225,
      "aying": 7226,
      "Ġcoug": 7227,
      "Ġshoo": 7228,
      "ĠLouise": 7229,
      "Sue": 7230,
      "Watch": 7231,
      "Ġevil": 7232,
      "Ġease": 7233,
      "Ġkittens": 7234,
      "Ġpaths": 7235,
      "ĠPippin": 7236,
      "Ġmailed": 7237,
      "Ġwithin": 7238,
      "ĠHalloween": 7239,
      "ĠPippa": 7240,
      "Ġblocked": 7241,
      "Ġais": 7242,
      "onies": 7243,
      "Ġlaying": 7244,
      "ĠAlly": 7245,
      "Ġmerma": 7246,
      "ĠMother": 7247,
      "antastic": 7248,
      "ĠStart": 7249,
      "Ġslipping": 7250,
      "Ġsweep": 7251,
      "ino": 7252,
      "Ġyum": 7253,
      "Ġbru": 7254,
      "Ġbelts": 7255,
      "Ġfigures": 7256,
      "ĠRocky": 7257,
      "Ġresults": 7258,
      "Ġsever": 7259,
      "Ġanger": 7260,
      "Ġseveral": 7261,
      "ĠHope": 7262,
      "Ġbits": 7263,
      "ĠBecky": 7264,
      "Ġhundred": 7265,
      "Ġroars": 7266,
      "Ġhairdress": 7267,
      "Ġtying": 7268,
      "dding": 7269,
      "ĠPen": 7270,
      "Ġdespite": 7271,
      "Ġfinishing": 7272,
      "asty": 7273,
      "Ġcrossing": 7274,
      "Ġbuses": 7275,
      "Ġtwisty": 7276,
      "Ġpins": 7277,
      "Ġshrug": 7278,
      "Ġshovels": 7279,
      "Ġdefin": 7280,
      "Ġsurfing": 7281,
      "Ġconnected": 7282,
      "Ġtuck": 7283,
      "Ġund": 7284,
      "Ġnoodles": 7285,
      "Ġstreamers": 7286,
      "Ġpuzzled": 7287,
      "Ġrepeating": 7288,
      "ĠFrankie": 7289,
      "Ġdamaged": 7290,
      "Ġfleas": 7291,
      "ighting": 7292,
      "ĠGa": 7293,
      "Ġtwisting": 7294,
      "Ġsuffered": 7295,
      "isc": 7296,
      "Ġbracelets": 7297,
      "Ġresponsib": 7298,
      "ĠTime": 7299,
      "lves": 7300,
      "Ġawoke": 7301,
      "Ġbehavior": 7302,
      "Ġtablet": 7303,
      "Ġbreathing": 7304,
      "ecca": 7305,
      "Vroom": 7306,
      "Ġsurrendered": 7307,
      "ĠAuntie": 7308,
      "ĠGreen": 7309,
      "Ġrisks": 7310,
      "ppies": 7311,
      "Ġencount": 7312,
      "Ġsupported": 7313,
      "Ġaccomplished": 7314,
      "Ġtoward": 7315,
      "Ġhumming": 7316,
      "Ġlicking": 7317,
      "Ġignoring": 7318,
      "Ġshady": 7319,
      "Ġcleaner": 7320,
      "Ġquieter": 7321,
      "Ġluckily": 7322,
      "Ġlending": 7323,
      "Ġrather": 7324,
      "Ġwhose": 7325,
      "Ġslither": 7326,
      "byes": 7327,
      "ĠFlo": 7328,
      "Ġhairdresser": 7329,
      "Ġrainy": 7330,
      "Ġcuddles": 7331,
      "eling": 7332,
      "Ġgoodbyes": 7333,
      "Ġfinal": 7334,
      "Ġfantastic": 7335,
      "ening": 7336,
      "Ġcloudy": 7337,
      "Ġcotton": 7338,
      "Ġfrowns": 7339,
      "Take": 7340,
      "Ġedges": 7341,
      "idey": 7342,
      "ĠJaney": 7343,
      "Ġoysters": 7344,
      "Ġdefinitely": 7345,
      "unity": 7346,
      "Ġhanding": 7347,
      "Ġdrown": 7348,
      "Ġcoral": 7349,
      "isions": 7350,
      "ĠWil": 7351,
      "crow": 7352,
      "Ġponies": 7353,
      "ĠKelly": 7354,
      "ĠLuc": 7355,
      "Ġfocus": 7356,
      "Surprise": 7357,
      "Ġsy": 7358,
      "ĠPretty": 7359,
      "ĠEliz": 7360,
      "erk": 7361,
      "Ġgesture": 7362,
      "Ġbattle": 7363,
      "Ġsped": 7364,
      "Ġsnowflakes": 7365,
      "Ġkings": 7366,
      "Ġstitches": 7367,
      "Ġsharks": 7368,
      "Ġthorns": 7369,
      "Ġsurv": 7370,
      "Ġsmallest": 7371,
      "Ġrains": 7372,
      "Ġvines": 7373,
      "Ġcorrectly": 7374,
      "Ġpeeled": 7375,
      "ĠSpidey": 7376,
      "Ġwarri": 7377,
      "Ġelbow": 7378,
      "Ġreminding": 7379,
      "Ġweeds": 7380,
      "Ġsymbols": 7381,
      "ĠKevin": 7382,
      "ĠWally": 7383,
      "ĠAny": 7384,
      "Ġprick": 7385,
      "Ġstudent": 7386,
      "Ġnewfound": 7387,
      "Ġdriveway": 7388,
      "Ġwisely": 7389,
      "Ġsou": 7390,
      "Ġsnort": 7391,
      "Ġdecisions": 7392,
      "Ġgranddaughter": 7393,
      "Ġgrandson": 7394,
      "ĠFroggy": 7395,
      "Ġtar": 7396,
      "Ġchopped": 7397,
      "Ġexcept": 7398,
      "Ġbandages": 7399,
      "cent": 7400,
      "Ġmasterp": 7401,
      "Ġfishes": 7402,
      "Ġwobble": 7403,
      "Ġsqueaked": 7404,
      "ĠX": 7405,
      "worm": 7406,
      "Ġsimply": 7407,
      "whe": 7408,
      "rie": 7409,
      "Ġafar": 7410,
      "ĠDaniel": 7411,
      "Ġnasty": 7412,
      "we": 7413,
      "Ġbirdhouse": 7414,
      "Ġinspired": 7415,
      "Ġtipped": 7416,
      "onse": 7417,
      "Ġstopping": 7418,
      "Ġresponse": 7419,
      "Ġtravels": 7420,
      "ĠAr": 7421,
      "Ġoccas": 7422,
      "steps": 7423,
      "father": 7424,
      "Ġni": 7425,
      "Ġdarl": 7426,
      "athy": 7427,
      "Ġbanged": 7428,
      "Ġscarecrow": 7429,
      "Ġexercises": 7430,
      "Ġdarlings": 7431,
      "ĠAna": 7432,
      "ĠRain": 7433,
      "Ġpresented": 7434,
      "ĠStan": 7435,
      "Ġpedaled": 7436,
      "ĠJoan": 7437,
      "Ġpurr": 7438,
      "onnie": 7439,
      "Ġplanting": 7440,
      "Ġflipped": 7441,
      "Ġpoppies": 7442,
      "Ġpunishment": 7443,
      "Ġlent": 7444,
      "elie": 7445,
      "Ġfootsteps": 7446,
      "Ġtrotted": 7447,
      "mered": 7448,
      "Ġaddress": 7449,
      "sol": 7450,
      "Ġantic": 7451,
      "Ġspits": 7452,
      "Ġdisturbing": 7453,
      "ĠBounce": 7454,
      "Ġfills": 7455,
      "Ġtravelling": 7456,
      "ĠWelcome": 7457,
      "ddie": 7458,
      "Ġarranged": 7459,
      "ms": 7460,
      "Ġforests": 7461,
      "ĠJax": 7462,
      "Ġconvin": 7463,
      "ĠElle": 7464,
      "Ġapologised": 7465,
      "Ġwindowsill": 7466,
      "Ġships": 7467,
      "ĠPepper": 7468,
      "Ġsurfboard": 7469,
      "ĠExcitedly": 7470,
      "Ġcongratulated": 7471,
      "ĠPu": 7472,
      "Ġbelieving": 7473,
      "Ġimages": 7474,
      "line": 7475,
      "Ġreapp": 7476,
      "ĠDory": 7477,
      "Ġtarget": 7478,
      "Ġlies": 7479,
      "Ġofficers": 7480,
      "ooky": 7481,
      "ĠFeeling": 7482,
      "Ġreunited": 7483,
      "Ġcovering": 7484,
      "Ġchocolates": 7485,
      "Ġterrified": 7486,
      "Cl": 7487,
      "Ġbusiness": 7488,
      "perate": 7489,
      "Ġsuits": 7490,
      "Ġcampfire": 7491,
      "Ġmasterpiece": 7492,
      "Ġnodding": 7493,
      "aa": 7494,
      "Ġknots": 7495,
      "ĠDog": 7496,
      "Ġbackpacks": 7497,
      "Ġreassured": 7498,
      "ĠPhil": 7499,
      "issa": 7500,
      "Ġexpert": 7501,
      "Ġsails": 7502,
      "Ġgrip": 7503,
      "inkle": 7504,
      "Ġdep": 7505,
      "utter": 7506,
      "Ġwrinkled": 7507,
      "ĠRoger": 7508,
      "Ġencouragement": 7509,
      "Ġgears": 7510,
      "ended": 7511,
      "Beep": 7512,
      "ĠPatty": 7513,
      "manda": 7514,
      "Ġcheers": 7515,
      "Ġchilly": 7516,
      "Ġactivity": 7517,
      "Ġmood": 7518,
      "Ġmarve": 7519,
      "Ġsmelling": 7520,
      "ĠBow": 7521,
      "Ġyel": 7522,
      "ĠOther": 7523,
      "Ġclerk": 7524,
      "ĠGus": 7525,
      "Quick": 7526,
      "acles": 7527,
      "ĠSnowman": 7528,
      "Ġconcert": 7529,
      "Ġyelped": 7530,
      "Ġchanges": 7531,
      "otte": 7532,
      "Ġmagnif": 7533,
      "Ġspills": 7534,
      "ĠSplash": 7535,
      "ats": 7536,
      "ĠBri": 7537,
      "ĠAmanda": 7538,
      "Ġsuggestion": 7539,
      "Ġdelayed": 7540,
      "acle": 7541,
      "Ġtasting": 7542,
      "Ġsurprising": 7543,
      "ĠNancy": 7544,
      "ĠFighting": 7545,
      "ider": 7546,
      "Ġtesting": 7547,
      "Ġsniffing": 7548,
      "Ġspeeding": 7549,
      "ĠOkay": 7550,
      "Ġcalmly": 7551,
      "Ġdiscussing": 7552,
      "ĠStartled": 7553,
      "Ġmagazines": 7554,
      "Ġlabels": 7555,
      "ĠElly": 7556,
      "ĠSpe": 7557,
      "Ġdragonfly": 7558,
      "ĠTry": 7559,
      "Ġpuck": 7560,
      "Ġjars": 7561,
      "Ġpleaded": 7562,
      "emma": 7563,
      "Ġaware": 7564,
      "ĠQuackers": 7565,
      "Ġcomforting": 7566,
      "Ġbraver": 7567,
      "Ġhoo": 7568,
      "screen": 7569,
      "Ġadmiration": 7570,
      "ĠOutside": 7571,
      "Ġfoxes": 7572,
      "Ġspies": 7573,
      "Ġunderstands": 7574,
      "Ġmermaid": 7575,
      "rier": 7576,
      "Ġtoolbox": 7577,
      "Ġbelongings": 7578,
      "flies": 7579,
      "Ġartwork": 7580,
      "Ġstumble": 7581,
      "Ġworrying": 7582,
      "Ġbothering": 7583,
      "ĠJean": 7584,
      "Ġsav": 7585,
      "Ġalthough": 7586,
      "ails": 7587,
      "ĠCharlotte": 7588,
      "Ġburying": 7589,
      "Ġdisplayed": 7590,
      "Ġrefuse": 7591,
      "Ġunfortunately": 7592,
      "Ġmischie": 7593,
      "Ġefforts": 7594,
      "Ġdump": 7595,
      "ighing": 7596,
      "Ġmischievous": 7597,
      "ĠDuck": 7598,
      "Ġseller": 7599,
      "Ġannoyed": 7600,
      "Ġheight": 7601,
      "bell": 7602,
      "Ġexperienced": 7603,
      "Ġbuddy": 7604,
      "Little": 7605,
      "asha": 7606,
      "Ġbless": 7607,
      "Ġbitten": 7608,
      "ĠLina": 7609,
      "Ġmomma": 7610,
      "Ġcrowns": 7611,
      "Ġmemb": 7612,
      "Ġmembers": 7613,
      "wise": 7614,
      "Ġsolving": 7615,
      "ĠEddie": 7616,
      "Ġdecl": 7617,
      "ĠSnowball": 7618,
      "pen": 7619,
      "Ġdisc": 7620,
      "Ġwarmly": 7621,
      "Ġfires": 7622,
      "ĠTy": 7623,
      "Ġbaskets": 7624,
      "Ġseashells": 7625,
      "ipes": 7626,
      "Ġpackages": 7627,
      "inted": 7628,
      "ugging": 7629,
      "what": 7630,
      "ĠEric": 7631,
      "Ġposit": 7632,
      "Ġque": 7633,
      "vroom": 7634,
      "Ġtumbled": 7635,
      "ĠAnnab": 7636,
      "Ġpeas": 7637,
      "Ġsunscreen": 7638,
      "ĠFort": 7639,
      "Ġnibbled": 7640,
      "ĠHelen": 7641,
      "Ġconqu": 7642,
      "Ġwealth": 7643,
      "Ġstomp": 7644,
      "Ġgazing": 7645,
      "aint": 7646,
      "Ġsquaw": 7647,
      "ĠElsa": 7648,
      "aturday": 7649,
      "Ġtreated": 7650,
      "ĠSaturday": 7651,
      "Ġparted": 7652,
      "ibbit": 7653,
      "ĠTerry": 7654,
      "Ġdiso": 7655,
      "Ġtroubles": 7656,
      "Ġuntied": 7657,
      "Ġvehicles": 7658,
      "Ġrotting": 7659,
      "Ġgenie": 7660,
      "Ġinsisting": 7661,
      "Ġloses": 7662,
      "Ġwhispering": 7663,
      "Ġmaterial": 7664,
      "Ġstored": 7665,
      "Ġpurpose": 7666,
      "Ġenviron": 7667,
      "ĠSe": 7668,
      "Ġscent": 7669,
      "ĠFortunately": 7670,
      "Ġjoked": 7671,
      "Ġraces": 7672,
      "airy": 7673,
      "Ġtweet": 7674,
      "Ġteachers": 7675,
      "ĠRudy": 7676,
      "ĠTammy": 7677,
      "Ġcollap": 7678,
      "Ġsheets": 7679,
      "Ġsewed": 7680,
      "Ġenvironment": 7681,
      "Ġorders": 7682,
      "aver": 7683,
      "Ġsill": 7684,
      "owing": 7685,
      "Ġspooky": 7686,
      "Ġprayers": 7687,
      "Ġscurrying": 7688,
      "Dear": 7689,
      "Ġtilted": 7690,
      "attered": 7691,
      "Ġencountered": 7692,
      "Ġtoss": 7693,
      "ppa": 7694,
      "Ġconversation": 7695,
      "Get": 7696,
      "Ġmaker": 7697,
      "Ġcoach": 7698,
      "Ġjoins": 7699,
      "Ġpandas": 7700,
      "Ġcowboy": 7701,
      "ument": 7702,
      "Ġservant": 7703,
      "Ġpupils": 7704,
      "Ġanticip": 7705,
      "ĠAva": 7706,
      "Ġexch": 7707,
      "Ġglittering": 7708,
      "ĠâĢĶ": 7709,
      "Ġdonkey": 7710,
      "Ġhoops": 7711,
      "Ġdiamonds": 7712,
      "ongo": 7713,
      "Ġscram": 7714,
      "Ġaim": 7715,
      "Ġtubes": 7716,
      "Ġuntie": 7717,
      "Ġpermitted": 7718,
      "Ġloops": 7719,
      "Ġturtles": 7720,
      "ĠSpeedy": 7721,
      "order": 7722,
      "Ġtrans": 7723,
      "Ġfilms": 7724,
      "ĠSasha": 7725,
      "Ġfins": 7726,
      "Goodnight": 7727,
      "All": 7728,
      "ĠLy": 7729,
      "Ġstroke": 7730,
      "Ġcustomers": 7731,
      "illiam": 7732,
      "Ġgap": 7733,
      "ĠWoo": 7734,
      "Ġtapping": 7735,
      "Ġbeaming": 7736,
      "iscuit": 7737,
      "Ġwasting": 7738,
      "ĠIzzy": 7739,
      "Ġcleared": 7740,
      "Ġhunters": 7741,
      "Ġwounds": 7742,
      "Ġqueens": 7743,
      "Ġtype": 7744,
      "Ġswo": 7745,
      "ĠStitch": 7746,
      "ĠElsie": 7747,
      "Ġrin": 7748,
      "Ġvisitors": 7749,
      "Ġger": 7750,
      "Ġspells": 7751,
      "Ġnearest": 7752,
      "Ġswollen": 7753,
      "Ġends": 7754,
      "Ġshall": 7755,
      "Ġdressing": 7756,
      "Ġinchworm": 7757,
      "ĠSw": 7758,
      "ĠJason": 7759,
      "ĠSeeing": 7760,
      "Ġopport": 7761,
      "ĠMin": 7762,
      "Ġpriz": 7763,
      "Ġoppos": 7764,
      "Every": 7765,
      "Ġnurses": 7766,
      "usty": 7767,
      "ĠPoor": 7768,
      "ĠHold": 7769,
      "ĠWilliam": 7770,
      "Ġslowed": 7771,
      "orter": 7772,
      "Ġcharacters": 7773,
      "Ġconvinced": 7774,
      "Ġexamining": 7775,
      "Ġlipstick": 7776,
      "igger": 7777,
      "Ġtidied": 7778,
      "Ġfailed": 7779,
      "ĠNana": 7780,
      "ĠGrand": 7781,
      "Ġdeclared": 7782,
      "Ġdot": 7783,
      "ĠRicky": 7784,
      "Ġopposite": 7785,
      "ĠSk": 7786,
      "Ġwarrior": 7787,
      "ilities": 7788,
      "Ġtransf": 7789,
      "aven": 7790,
      "mies": 7791,
      "ĠLion": 7792,
      "ĠSpring": 7793,
      "ĠFinny": 7794,
      "Ġsweaty": 7795,
      "Ġpeep": 7796,
      "Ġrescuing": 7797,
      "Leave": 7798,
      "Jim": 7799,
      "Ġgrandfather": 7800,
      "Ġguessing": 7801,
      "Ġgoodies": 7802,
      "Ġyoungest": 7803,
      "elope": 7804,
      "Ġseagulls": 7805,
      "Ġforgiveness": 7806,
      "Ġsternly": 7807,
      "rest": 7808,
      "Ġsmashed": 7809,
      "Ġgoats": 7810,
      "Ġbeeped": 7811,
      "Ġaeroplanes": 7812,
      "Ġanticipation": 7813,
      "ssss": 7814,
      "empt": 7815,
      "Ġdripping": 7816,
      "Ġforce": 7817,
      "Ġbou": 7818,
      "Ġbouqu": 7819,
      "Ġthanking": 7820,
      "Ġscrambled": 7821,
      "acy": 7822,
      "Ġattempt": 7823,
      "Ġzooms": 7824,
      "ĠBobbie": 7825,
      "Wh": 7826,
      "rily": 7827,
      "Ġscratching": 7828,
      "Ġinter": 7829,
      "Ġobeyed": 7830,
      "Ġaisle": 7831,
      "Ġstall": 7832,
      "Ġresponded": 7833,
      "Ġmanners": 7834,
      "Ġquestioned": 7835,
      "Ġmeowing": 7836,
      "Ġattacked": 7837,
      "ĠBongo": 7838,
      "ĠReb": 7839,
      "Ġactive": 7840,
      "Ġspy": 7841,
      "Ġblond": 7842,
      "Ġdiscoveries": 7843,
      "Ġnibble": 7844,
      "Ġting": 7845,
      "Ġjud": 7846,
      "Ġvibr": 7847,
      "Ġexplains": 7848,
      "ĠTessa": 7849,
      "Stay": 7850,
      "ĠLa": 7851,
      "Ġform": 7852,
      "Ġgrat": 7853,
      "Ġemerged": 7854,
      "ĠOliv": 7855,
      "Ġresponsibility": 7856,
      "ĠTaking": 7857,
      "Ġtires": 7858,
      "cie": 7859,
      "Ġramp": 7860,
      "Ġshin": 7861,
      "Ġsprout": 7862,
      "Ġtwists": 7863,
      "ĠPeppa": 7864,
      "yl": 7865,
      "Ġrays": 7866,
      "Any": 7867,
      "Ġsnug": 7868,
      "Ġrely": 7869,
      "Ġpicnics": 7870,
      "Ġfloors": 7871,
      "ĠRebecca": 7872,
      "ana": 7873,
      "Ġself": 7874,
      "Ġmatey": 7875,
      "Ġsoot": 7876,
      "Ġsigning": 7877,
      "ĠWin": 7878,
      "Ġsens": 7879,
      "Ġdecoration": 7880,
      "ippers": 7881,
      "Ġgratitude": 7882,
      "Ġvegg": 7883,
      "Ġinstantly": 7884,
      "act": 7885,
      "Ġhen": 7886,
      "Ġcharge": 7887,
      "Ġvisits": 7888,
      "Ġknocking": 7889,
      "munk": 7890,
      "Ġwiggly": 7891,
      "Ġseals": 7892,
      "Ġclassmates": 7893,
      "Always": 7894,
      "inger": 7895,
      "roll": 7896,
      "Ġdoorbell": 7897,
      "Ġchatter": 7898,
      "Ġloc": 7899,
      "anda": 7900,
      "Ġsurvive": 7901,
      "athan": 7902,
      "Ġshrunk": 7903,
      "Ġlowered": 7904,
      "Ġshimmering": 7905,
      "Ġbrightest": 7906,
      "ĠChick": 7907,
      "Ġbreaths": 7908,
      "ĠBrian": 7909,
      "Ġrumbling": 7910,
      "ĠBeh": 7911,
      "Ġincreasing": 7912,
      "Ġunwra": 7913,
      "Ġbuckled": 7914,
      "Ġearned": 7915,
      "Ġmunched": 7916,
      "Fl": 7917,
      "ooking": 7918,
      "Ġwhoever": 7919,
      "ĠAmber": 7920,
      "Ġbond": 7921,
      "idence": 7922,
      "Ġcracks": 7923,
      "iens": 7924,
      "Ġwinding": 7925,
      "Ġaliens": 7926,
      "Ġpurrs": 7927,
      "ĠRobo": 7928,
      "sm": 7929,
      "ummies": 7930,
      "Ġdisobey": 7931,
      "Ġswaying": 7932,
      "oscope": 7933,
      "Ġhonking": 7934,
      "udged": 7935,
      "ĠSparkle": 7936,
      "ching": 7937,
      "ĠGary": 7938,
      "Ġmovements": 7939,
      "lied": 7940,
      "ĠStep": 7941,
      "ĠMatilda": 7942,
      "Ġchipmunk": 7943,
      "Ġamu": 7944,
      "Ġrowed": 7945,
      "Ġsteth": 7946,
      "flowers": 7947,
      "Ġbadger": 7948,
      "Ġprevented": 7949,
      "gain": 7950,
      "storm": 7951,
      "Ġbeeh": 7952,
      "ĠPenelope": 7953,
      "So": 7954,
      "ĠShelly": 7955,
      "romise": 7956,
      "ĠOlivia": 7957,
      "ittered": 7958,
      "ĠAnt": 7959,
      "Ġflaps": 7960,
      "Ġswitched": 7961,
      "Ġargument": 7962,
      "Ġprickly": 7963,
      "ĠJilly": 7964,
      "ĠZoomy": 7965,
      "Ġnuzzled": 7966,
      "Ġbeaver": 7967,
      "Ġmanager": 7968,
      "Ġtaped": 7969,
      "Ġmosquitoes": 7970,
      "its": 7971,
      "aret": 7972,
      "ĠFel": 7973,
      "Ġoffering": 7974,
      "Ġswayed": 7975,
      "Ġdodged": 7976,
      "Ġswap": 7977,
      "Ġcares": 7978,
      "Ġglimmering": 7979,
      "Ġdesigning": 7980,
      "Ġbathing": 7981,
      "Ġscooters": 7982,
      "aby": 7983,
      "Ġannounced": 7984,
      "ĠSir": 7985,
      "Ġcons": 7986,
      "Ġcrawls": 7987,
      "Ġrats": 7988,
      "lph": 7989,
      "An": 7990,
      "Ġbeating": 7991,
      "Ġsmelt": 7992,
      "Ġcrops": 7993,
      "Ġjobs": 7994,
      "Ġscolds": 7995,
      "ĠEver": 7996,
      "ĠCara": 7997,
      "Ġsnaps": 7998,
      "ĠCrabby": 7999,
      "ĠBehind": 8000,
      "Ġstethoscope": 8001,
      "uel": 8002,
      "ĠSweet": 8003,
      "Ġcustomer": 8004,
      "Bang": 8005,
      "Ġwhistles": 8006,
      "amma": 8007,
      "boards": 8008,
      "Ġminds": 8009,
      "Ġobserving": 8010,
      "ĠAshley": 8011,
      "da": 8012,
      "Ġflips": 8013,
      "Ġexploded": 8014,
      "Ġclosing": 8015,
      "Ġlanguages": 8016,
      "Ġposes": 8017,
      "ĠPau": 8018,
      "Ġdestroying": 8019,
      "Ġmillion": 8020,
      "Ġtummies": 8021,
      "ddles": 8022,
      "Ġdeed": 8023,
      "Ġgenerosity": 8024,
      "Ġgerms": 8025,
      "rink": 8026,
      "ĠTrust": 8027,
      "Ġdrowned": 8028,
      "Ġstamped": 8029,
      "ita": 8030,
      "Ġshines": 8031,
      "Ġknives": 8032,
      "Ġdangers": 8033,
      "Ġcheckout": 8034,
      "ĠReady": 8035,
      "Ġbeautifully": 8036,
      "Ġhonesty": 8037,
      "Ġrobbers": 8038,
      "Ġcocoon": 8039,
      "Ġhike": 8040,
      "ĠPeggy": 8041,
      "Ġgroan": 8042,
      "Ġsupplied": 8043,
      "Ġpaddling": 8044,
      "Ġlapt": 8045,
      "bee": 8046,
      "ĠAngel": 8047,
      "ĠRud": 8048,
      "abra": 8049,
      "oc": 8050,
      "Ġplug": 8051,
      "ĠBad": 8052,
      "ĠCle": 8053,
      "ĠGracie": 8054,
      "Ġexpecting": 8055,
      "Ġconduct": 8056,
      "Ġdisappoint": 8057,
      "Ġclicked": 8058,
      "Ġhaven": 8059,
      "Ġroutine": 8060,
      "Ġveggies": 8061,
      "Ġtin": 8062,
      "ulp": 8063,
      "Ġrecorder": 8064,
      "otch": 8065,
      "Ġnovels": 8066,
      "olph": 8067,
      "Ġdears": 8068,
      "angle": 8069,
      "arable": 8070,
      "lest": 8071,
      "ĠNever": 8072,
      "Ġadds": 8073,
      "Mr": 8074,
      "Ġsculp": 8075,
      "Ġastronauts": 8076,
      "Ġcupcake": 8077,
      "Ġchatted": 8078,
      "ĠEliza": 8079,
      "Ġbouquet": 8080,
      "ĠBelle": 8081,
      "Ġexplor": 8082,
      "Ġsteering": 8083,
      "ĠGabby": 8084,
      "Ġstatues": 8085,
      "Ġconductor": 8086,
      "Ġill": 8087,
      "Ġtidying": 8088,
      "lt": 8089,
      "pit": 8090,
      "ĠRudolph": 8091,
      "oosh": 8092,
      "Ġparticularly": 8093,
      "Ġcourt": 8094,
      "lor": 8095,
      "ĠNora": 8096,
      "Ġapplause": 8097,
      "Ġlaptop": 8098,
      "rup": 8099,
      "ĠBert": 8100,
      "ĠBonnie": 8101,
      "Ġunpacking": 8102,
      "Ġwildflowers": 8103,
      "Ġstretches": 8104,
      "water": 8105,
      "Ġshorts": 8106,
      "Ġstrum": 8107,
      "Ġhardest": 8108,
      "Ġplugged": 8109,
      "pril": 8110,
      "Ġbeehive": 8111,
      "ĠIsn": 8112,
      "ĠZero": 8113,
      "idents": 8114,
      "Ġwiser": 8115,
      "Nice": 8116,
      "Ġdollar": 8117,
      "Ġfloats": 8118,
      "Ġsyrup": 8119,
      "ĠRiley": 8120,
      "Someone": 8121,
      "Too": 8122,
      "Ġscri": 8123,
      "Arrr": 8124,
      "Ġreminds": 8125,
      "Ġfascinating": 8126,
      "Ġelect": 8127,
      "ĠEle": 8128,
      "ĠZack": 8129,
      "omb": 8130,
      "ative": 8131,
      "ĠHo": 8132,
      "Ġcombed": 8133,
      "Ġhealthier": 8134,
      "Ġfaint": 8135,
      "Ġoverhead": 8136,
      "Ġghosts": 8137,
      "ĠRosa": 8138,
      "idnight": 8139,
      "ĠCr": 8140,
      "Ġsquished": 8141,
      "ĠTyler": 8142,
      "Ġouch": 8143,
      "ĠPaula": 8144,
      "Ġflashed": 8145,
      "Ġopinions": 8146,
      "ĠJenn": 8147,
      "Ġawful": 8148,
      "Ġheaven": 8149,
      "Ġswallow": 8150,
      "Ġgall": 8151,
      "Ġtraded": 8152,
      "Ġsprays": 8153,
      "ĠCarla": 8154,
      "ĠRight": 8155,
      "ĠApril": 8156,
      "Ġumbrellas": 8157,
      "Ġbeast": 8158,
      "Ġexperiences": 8159,
      "anced": 8160,
      "Ġshorter": 8161,
      "Ġnests": 8162,
      "Ġbothered": 8163,
      "ĠImmediately": 8164,
      "Ġreturning": 8165,
      "earing": 8166,
      "Ġdesc": 8167,
      "Ġfarmers": 8168,
      "Ġcontainer": 8169,
      "chy": 8170,
      "Ġexamp": 8171,
      "Ġtearing": 8172,
      "Ġsculpture": 8173,
      "Ġcarries": 8174,
      "ĠFlora": 8175,
      "Ġbounces": 8176,
      "ĠHar": 8177,
      "Ġinches": 8178,
      "five": 8179,
      "Ġchecks": 8180,
      "Ġteles": 8181,
      "Ġtests": 8182,
      "ĠQuickly": 8183,
      "ouraged": 8184,
      "ccidents": 8185,
      "Ġkilled": 8186,
      "Ġproviding": 8187,
      "ĠMelissa": 8188,
      "ĠAndrew": 8189,
      "Ġglided": 8190,
      "ators": 8191,
      "ĠPrince": 8192,
      "In": 8193,
      "orking": 8194,
      "Ġlocks": 8195,
      "Ġsets": 8196,
      "ordinary": 8197,
      "rough": 8198,
      "Ġfaith": 8199,
      "centr": 8200,
      "Ġcaw": 8201,
      "ĠFairy": 8202,
      "Ġhotter": 8203,
      "ĠBarry": 8204,
      "ĠButter": 8205,
      "Ġgrumbled": 8206,
      "Ġweapons": 8207,
      "Ġsadder": 8208,
      "Ġtrusting": 8209,
      "Ġsprinkle": 8210,
      "elieve": 8211,
      "Ġtelescope": 8212,
      "lo": 8213,
      "Quack": 8214,
      "Ġdefeated": 8215,
      "Ġconcentr": 8216,
      "ĠAnnabelle": 8217,
      "Ġnights": 8218,
      "ĠLiam": 8219,
      "Ġflashing": 8220,
      "ĠAnother": 8221,
      "ĠBang": 8222,
      "Ġscrub": 8223,
      "vy": 8224,
      "Ġpapa": 8225,
      "Ġburnt": 8226,
      "ooks": 8227,
      "Ġhu": 8228,
      "rench": 8229,
      "Ġchecking": 8230,
      "Ġconfidence": 8231,
      "Ġelectric": 8232,
      "parable": 8233,
      "Ġcheated": 8234,
      "Ġpetting": 8235,
      "Ġraising": 8236,
      "ĠSay": 8237,
      "Ġconv": 8238,
      "Ġcrystals": 8239,
      "Ġinseparable": 8240,
      "bu": 8241,
      "eople": 8242,
      "Ġnecks": 8243,
      "Ġawhile": 8244,
      "Ġhiss": 8245,
      "ession": 8246,
      "Ġbluebird": 8247,
      "Ġblown": 8248,
      "iving": 8249,
      "Kids": 8250,
      "Ġicing": 8251,
      "Ġmember": 8252,
      "Ġtwenty": 8253,
      "Ġgardens": 8254,
      "Ġforgives": 8255,
      "Ġconvince": 8256,
      "ift": 8257,
      "Ġcollapsed": 8258,
      "ĠWooly": 8259,
      "ances": 8260,
      "Ġgrassho": 8261,
      "Ġvisitor": 8262,
      "Ġextraordinary": 8263,
      "Ġapplauding": 8264,
      "lers": 8265,
      "Ġtypes": 8266,
      "Ġserving": 8267,
      "Ġsirens": 8268,
      "Ġexample": 8269,
      "Ġborn": 8270,
      "Molly": 8271,
      "Ġimaginary": 8272,
      "bl": 8273,
      "Billy": 8274,
      "Ġmac": 8275,
      "Ġcubs": 8276,
      "Put": 8277,
      "Ġbiscuit": 8278,
      "Ġnatur": 8279,
      "Ġdryer": 8280,
      "Ġburns": 8281,
      "Ġteams": 8282,
      "Choo": 8283,
      "Ġprizes": 8284,
      "eep": 8285,
      "ĠLenny": 8286,
      "Ġmunching": 8287,
      "ĠJody": 8288,
      "Ġsoapy": 8289,
      "Ġpeeped": 8290,
      "Ġgoo": 8291,
      "Ġkit": 8292,
      "âĢ¦": 8293,
      "Ġflip": 8294,
      "ĠLiza": 8295,
      "ĠPick": 8296,
      "Ġbicycles": 8297,
      "ĠFoxy": 8298,
      "ĠCandy": 8299,
      "ĠWo": 8300,
      "ĠWigg": 8301,
      "Amy": 8302,
      "ĠDino": 8303,
      "Ġsingers": 8304,
      "Ġunlo": 8305,
      "Ġmeows": 8306,
      "Ġconquered": 8307,
      "ĠMila": 8308,
      "Ġlongest": 8309,
      "ĠMona": 8310,
      "Ġbehaviour": 8311,
      "over": 8312,
      "Ġsprang": 8313,
      "Ġodd": 8314,
      "Ġinvent": 8315,
      "Ġwaters": 8316,
      "Ġinstrument": 8317,
      "ĠTwinkle": 8318,
      "ĠSparkles": 8319,
      "His": 8320,
      "Ġplayd": 8321,
      "Ġattitude": 8322,
      "Ġcompan": 8323,
      "Ġexpression": 8324,
      "Ġsalon": 8325,
      "Ġotters": 8326,
      "ĠRufus": 8327,
      "Ġwaded": 8328,
      "Ġbomb": 8329,
      "Ġupside": 8330,
      "Ġdock": 8331,
      "val": 8332,
      "adabra": 8333,
      "Ġflick": 8334,
      "Ġlim": 8335,
      "Ġwriggled": 8336,
      "On": 8337,
      "ĠRich": 8338,
      "ĠMagic": 8339,
      "Ġhood": 8340,
      "ending": 8341,
      "Ġmommies": 8342,
      "getic": 8343,
      "Ġdistracted": 8344,
      "Boys": 8345,
      "ĠSmo": 8346,
      "shaped": 8347,
      "adually": 8348,
      "Ġcheaper": 8349,
      "Ġswimmer": 8350,
      "cadabra": 8351,
      "Ġpills": 8352,
      "Sarah": 8353,
      "Ġsweaters": 8354,
      "Ġopportunity": 8355,
      "Ġexploration": 8356,
      "Ġfet": 8357,
      "Ġenem": 8358,
      "ĠPet": 8359,
      "Ġgulp": 8360,
      "Ġcoolest": 8361,
      "Ġenemies": 8362,
      "Ġburger": 8363,
      "Ġflowing": 8364,
      "Ġbride": 8365,
      "Ġflock": 8366,
      "Ġunable": 8367,
      "Ġtraveling": 8368,
      "Ġrows": 8369,
      "rick": 8370,
      "Ġ5": 8371,
      "ĠEd": 8372,
      "Ġrealizes": 8373,
      "ĠPin": 8374,
      "Ġhunting": 8375,
      "Ġdeserved": 8376,
      "Ab": 8377,
      "Sally": 8378,
      "Ġsandy": 8379,
      "ouched": 8380,
      "ĠJose": 8381,
      "ĠOliver": 8382,
      "Ġdiscouraged": 8383,
      "Ġengines": 8384,
      "Ġreappeared": 8385,
      "Ġgrasshopper": 8386,
      "Ġchatting": 8387,
      "Ġclearly": 8388,
      "ĠSand": 8389,
      "jest": 8390,
      "Ġthump": 8391,
      "ĠWilly": 8392,
      "ĠNe": 8393,
      "Ġcompete": 8394,
      "Ġannoying": 8395,
      "Ġtips": 8396,
      "Ġtrigger": 8397,
      "ĠJennie": 8398,
      "balls": 8399,
      "free": 8400,
      "ĠOink": 8401,
      "ĠMidnight": 8402,
      "Ġcountries": 8403,
      "Ġtorto": 8404,
      "Ġenvelopes": 8405,
      "off": 8406,
      "aptain": 8407,
      "Ġability": 8408,
      "whel": 8409,
      "ingo": 8410,
      "Ġuniforms": 8411,
      "ĠJanet": 8412,
      "Ġwhales": 8413,
      "Ġdetails": 8414,
      "Pl": 8415,
      "Ġcheat": 8416,
      "ĠMartin": 8417,
      "Ġclip": 8418,
      "Ġquacking": 8419,
      "elvet": 8420,
      "ĠMake": 8421,
      "Ġsometime": 8422,
      "Ġglittered": 8423,
      "ĠBoo": 8424,
      "icate": 8425,
      "ship": 8426,
      "Ġoverwhel": 8427,
      "Ġunco": 8428,
      "Ġjugg": 8429,
      "ĠLeah": 8430,
      "Ġspilling": 8431,
      "Ġcrowded": 8432,
      "Ġtortoise": 8433,
      "Ġwhined": 8434,
      "Ġpasses": 8435,
      "ĠShow": 8436,
      "Ġgallop": 8437,
      "stand": 8438,
      "Ġnoticing": 8439,
      "erg": 8440,
      "ĠMamma": 8441,
      "Ġfond": 8442,
      "Ġrelaxing": 8443,
      "Ġcommon": 8444,
      "aus": 8445,
      "ĠCare": 8446,
      "ĠZee": 8447,
      "str": 8448,
      "Ġtreas": 8449,
      "Ġskies": 8450,
      "Ġthicker": 8451,
      "Ġpatches": 8452,
      "Ġcheerfully": 8453,
      "Ġenjoyable": 8454,
      "Ġairplanes": 8455,
      "Ġhangers": 8456,
      "iolet": 8457,
      "ĠMoo": 8458,
      "Ġsoundly": 8459,
      "Ġprod": 8460,
      "ĠGray": 8461,
      "Ġnatural": 8462,
      "Ġcompanion": 8463,
      "Ġcurl": 8464,
      "Ġyawning": 8465,
      "Ġsincere": 8466,
      "bur": 8467,
      "Ġmattered": 8468,
      "Ġapproach": 8469,
      "ĠVelvet": 8470,
      "Ġstur": 8471,
      "Ġbecomes": 8472,
      "Ġstrips": 8473,
      "Ġcafe": 8474,
      "ĠLooking": 8475,
      "Ġbeetles": 8476,
      "iter": 8477,
      "Ġdoz": 8478,
      "Ġsurely": 8479,
      "Ġrepairman": 8480,
      "oard": 8481,
      "ĠBra": 8482,
      "ĠNice": 8483,
      "Ġformed": 8484,
      "Ġrobin": 8485,
      "Ġshallow": 8486,
      "Ġmoat": 8487,
      "Ġtreasured": 8488,
      "ĠSky": 8489,
      "Ġoutfits": 8490,
      "Ġvibrant": 8491,
      "Ġmarking": 8492,
      "Ġmoonlight": 8493,
      "ĠAccidents": 8494,
      "Ġwhisk": 8495,
      "Keep": 8496,
      "Ġmelody": 8497,
      "Ġmugs": 8498,
      "asmine": 8499,
      "Ġweighing": 8500,
      "Ġsqueaky": 8501,
      "Jo": 8502,
      "Ġaboard": 8503,
      "Ġbund": 8504,
      "ĠThrough": 8505,
      "Ġbubbly": 8506,
      "ĠKy": 8507,
      "ĠStri": 8508,
      "Ġnewspapers": 8509,
      "Ġswirls": 8510,
      "Ġpleas": 8511,
      "Ġfreezing": 8512,
      "ĠAgain": 8513,
      "Ġbacks": 8514,
      "ĠJoanna": 8515,
      "Ġhummed": 8516,
      "Ġcowboys": 8517,
      "Ġpepperoni": 8518,
      "ĠVroom": 8519,
      "ĠYum": 8520,
      "ĠEr": 8521,
      "Ġchill": 8522,
      "shadow": 8523,
      "ĠGinger": 8524,
      "uggy": 8525,
      "Ġhaircuts": 8526,
      "Ġcommun": 8527,
      "Ġwashes": 8528,
      "Ġblushed": 8529,
      "Ġstorms": 8530,
      "Ġerase": 8531,
      "ĠTiger": 8532,
      "Ġchin": 8533,
      "ĠCaptain": 8534,
      "Ġmiracle": 8535,
      "âĢĿ,": 8536,
      "Ġmesses": 8537,
      "iggie": 8538,
      "ering": 8539,
      "Ġcalmer": 8540,
      "ĠMonkey": 8541,
      "Ġpositive": 8542,
      "Ġhab": 8543,
      "Tr": 8544,
      "faction": 8545,
      "Ġscattering": 8546,
      "ĠOff": 8547,
      "Ġblonde": 8548,
      "Ġlump": 8549,
      "ĠOh": 8550,
      "ĠOver": 8551,
      "Ġank": 8552,
      "Ġdev": 8553,
      "Ġsatisfaction": 8554,
      "Ġsipped": 8555,
      "immered": 8556,
      "ighty": 8557,
      "Ġcoughed": 8558,
      "Ġoccasion": 8559,
      "Tw": 8560,
      "venir": 8561,
      "Ġleaking": 8562,
      "Ġmeatballs": 8563,
      "Ġclue": 8564,
      "ĠJohny": 8565,
      "ĠBunBun": 8566,
      "Ġsouvenir": 8567,
      "Ġyumm": 8568,
      "Anytime": 8569,
      "ware": 8570,
      "endant": 8571,
      "Ġsneezes": 8572,
      "hole": 8573,
      "Ġmodels": 8574,
      "ints": 8575,
      "amil": 8576,
      "Ġsuccessfully": 8577,
      "Ġcompliment": 8578,
      "Ġsituations": 8579,
      "ĠJasmine": 8580,
      "Ġsquinted": 8581,
      "Ġanswering": 8582,
      "Ġexplaining": 8583,
      "Ġweighs": 8584,
      "ĠSunshine": 8585,
      "Ġscenery": 8586,
      "Ġlocal": 8587,
      "isp": 8588,
      "Ġjoyfully": 8589,
      "Ġglittery": 8590,
      "ĠAvery": 8591,
      "ĠKen": 8592,
      "ili": 8593,
      "ĠHello": 8594,
      "Ġwelcoming": 8595,
      "ĠAlf": 8596,
      "ĠPer": 8597,
      "Ġtalents": 8598,
      "Ġscares": 8599,
      "Ġslee": 8600,
      "Ġburgers": 8601,
      "Joe": 8602,
      "etchup": 8603,
      "',": 8604,
      "Fluffy": 8605,
      "ĠWhoever": 8606,
      "Ġtickling": 8607,
      "Ġpressing": 8608,
      "Ġsmartest": 8609,
      "Ġbruises": 8610,
      "Ġrewards": 8611,
      "Ġrubbish": 8612,
      "Ġpractised": 8613,
      "Ġbound": 8614,
      "Ġintently": 8615,
      "Ġshattered": 8616,
      "Ġpossib": 8617,
      "belt": 8618,
      "bank": 8619,
      "Ġsnowy": 8620,
      "Ġrowing": 8621,
      "HE": 8622,
      "Ġrewarding": 8623,
      "Hmm": 8624,
      "ĠSuper": 8625,
      "Ġcleans": 8626,
      "Ġpantry": 8627,
      "Ġcells": 8628,
      "ĠChickie": 8629,
      "Ġteap": 8630,
      "Ġscow": 8631,
      "Ġtraps": 8632,
      "Ġpinching": 8633,
      "Ġunfair": 8634,
      "eal": 8635,
      "Ġcrocodiles": 8636,
      "Once": 8637,
      "sie": 8638,
      "scotch": 8639,
      "Ġbulbs": 8640,
      "Ġroast": 8641,
      "amboo": 8642,
      "Jimmy": 8643,
      "Hold": 8644,
      "Ġfunn": 8645,
      "Ġsturdy": 8646,
      "Honey": 8647,
      "Ġforts": 8648,
      "ĠChoo": 8649,
      "amiliar": 8650,
      "icious": 8651,
      "ĠDot": 8652,
      "Ġunfamiliar": 8653,
      "ĠPlaying": 8654,
      "oor": 8655,
      "Ġtopp": 8656,
      "Ġdoorstep": 8657,
      "ĠThankfully": 8658,
      "ĠBruce": 8659,
      "Ġapology": 8660,
      "Ġteapot": 8661,
      "Ġpilots": 8662,
      "Ġcages": 8663,
      "Ġbinoc": 8664,
      "Ġgoodness": 8665,
      "Ġseatbelt": 8666,
      "Ġtempted": 8667,
      "Ġgroaned": 8668,
      "Ġtentacles": 8669,
      "ĠHootie": 8670,
      "beep": 8671,
      "Ġsandpit": 8672,
      "Ġhorri": 8673,
      "Ġpipes": 8674,
      "Ġketchup": 8675,
      "Ġdigs": 8676,
      "Ġangrily": 8677,
      "ĠMan": 8678,
      "ĠNate": 8679,
      "Ġenergetic": 8680,
      "Ġmeadows": 8681,
      "Ġtunes": 8682,
      "Ġbends": 8683,
      "Ġhisses": 8684,
      "Ġwhimp": 8685,
      "Ġballer": 8686,
      "Ġfinishes": 8687,
      "Ġminded": 8688,
      "Ġmarveled": 8689,
      "now": 8690,
      "Ġjets": 8691,
      "Ġbubbling": 8692,
      "Ġstuffing": 8693,
      "Ġrebu": 8694,
      "Ġrunner": 8695,
      "Ġsmoking": 8696,
      "ĠVery": 8697,
      "Ġcroaked": 8698,
      "anie": 8699,
      "Ġlookout": 8700,
      "!'.": 8701,
      "Ġcheating": 8702,
      "Ġchopping": 8703,
      "ĠGold": 8704,
      "Ġstepping": 8705,
      "ĠBrad": 8706,
      "ĠSteven": 8707,
      "ĠOf": 8708,
      "Ġfireflies": 8709,
      "Ġstrolled": 8710,
      "Che": 8711,
      "lish": 8712,
      "Ġchews": 8713,
      "Ġhesitation": 8714,
      "Ġclut": 8715,
      "ĠFly": 8716,
      "Ġdefeat": 8717,
      "Ġlull": 8718,
      "Ġdou": 8719,
      "ĠCathy": 8720,
      "Ġmicrow": 8721,
      "Ġsweeter": 8722,
      "Ġinvites": 8723,
      "Ġobst": 8724,
      "rupt": 8725,
      "ĠRandy": 8726,
      "Ġshrank": 8727,
      "Ġoverwhelmed": 8728,
      "Em": 8729,
      "Ġtugging": 8730,
      "Ġfade": 8731,
      "ĠGemma": 8732,
      "Ġspoiling": 8733,
      "jack": 8734,
      "acock": 8735,
      "Ġembra": 8736,
      "Ġinju": 8737,
      "Ġmicrowave": 8738,
      "Achoo": 8739,
      "umper": 8740,
      "Ġshyly": 8741,
      "Ġplayhouse": 8742,
      "Ġcrisp": 8743,
      "Ġmessages": 8744,
      "scar": 8745,
      "Ġprotection": 8746,
      "Ġlar": 8747,
      "Ġacts": 8748,
      "Ġexchange": 8749,
      "sey": 8750,
      "Ahoy": 8751,
      "ĠElephant": 8752,
      "Ġ4": 8753,
      "Ġpouch": 8754,
      "Ġunderwater": 8755,
      "mel": 8756,
      "Ġalley": 8757,
      "Ġslapping": 8758,
      "ĠRat": 8759,
      "how": 8760,
      "ka": 8761,
      "ĠLight": 8762,
      "Ġcrouched": 8763,
      "Ġconsider": 8764,
      "Ġsection": 8765,
      "Ġmoons": 8766,
      "Ġguards": 8767,
      "ĠTre": 8768,
      "ĠPeep": 8769,
      "ĠFelix": 8770,
      "Open": 8771,
      "ulars": 8772,
      "Ġcherish": 8773,
      "ĠSurpr": 8774,
      "Ġripp": 8775,
      "Ġfishy": 8776,
      "Ġmonth": 8777,
      "Ġaston": 8778,
      "Ġboards": 8779,
      "Ġshares": 8780,
      "ĠTe": 8781,
      "otion": 8782,
      "ifi": 8783,
      "ĠDoes": 8784,
      "?âĢĿ.": 8785,
      "Ġgasps": 8786,
      "Ġslithered": 8787,
      "ĠLife": 8788,
      "Ġwatermel": 8789,
      "Ġpopsic": 8790,
      "Ġcertainly": 8791,
      "Ġdisappointment": 8792,
      "For": 8793,
      "Ġrips": 8794,
      "ĠJosie": 8795,
      "racadabra": 8796,
      "ole": 8797,
      "Ġcaterpillars": 8798,
      "Ġdemanding": 8799,
      "Ġfries": 8800,
      "chief": 8801,
      "Ġfoam": 8802,
      "Ġbinoculars": 8803,
      "iciest": 8804,
      "Ġhopscotch": 8805,
      "Ġloyalty": 8806,
      "Ġconnect": 8807,
      "Ġtransformed": 8808,
      "oss": 8809,
      "Ġpounced": 8810,
      "Ġbirdy": 8811,
      "Ġankle": 8812,
      "Ġballerina": 8813,
      "Ġfist": 8814,
      "ĠOscar": 8815,
      "ĠMighty": 8816,
      "Ġmeaning": 8817,
      "Ġmelons": 8818,
      "ĠPatrick": 8819,
      "Ġbamboo": 8820,
      "Ġrecess": 8821,
      "ĠFifi": 8822,
      "anted": 8823,
      "Ġraking": 8824,
      "Ġsweetly": 8825,
      "ĠIsab": 8826,
      "Never": 8827,
      "ĠTears": 8828,
      "Ġdifferently": 8829,
      "ĠClaus": 8830,
      "Ġamused": 8831,
      "ĠBeep": 8832,
      "Danger": 8833,
      "ĠMs": 8834,
      "ĠWhe": 8835,
      "gets": 8836,
      "Ġsqueezes": 8837,
      "Ġstores": 8838,
      "Ġlanding": 8839,
      "Ġnightmares": 8840,
      "ĠSandra": 8841,
      "ĠTHE": 8842,
      "ĠSleep": 8843,
      "ĠViolet": 8844,
      "Soon": 8845,
      "Ġicky": 8846,
      "Ġpokes": 8847,
      "ĠRita": 8848,
      "Ġprog": 8849,
      "Ġarrest": 8850,
      "Ġpeacock": 8851,
      "ĠMinnie": 8852,
      "iring": 8853,
      "Ġteamwork": 8854,
      "Ġunwrapped": 8855,
      "Ġrack": 8856,
      "cycles": 8857,
      "rum": 8858,
      "Ġactor": 8859,
      "ĠMarley": 8860,
      "Ġthunderstorm": 8861,
      "Ġcherished": 8862,
      "Ġsnorted": 8863,
      "Ġnapped": 8864,
      "alled": 8865,
      "Ġblades": 8866,
      "Ġmajest": 8867,
      "Ġriverbank": 8868,
      "Ġmayor": 8869,
      "Ġthrill": 8870,
      "Ġjudges": 8871,
      "ĠMine": 8872,
      "rob": 8873,
      "Ġplaydate": 8874,
      "!âĢĻ": 8875,
      ",'": 8876,
      "ĠChuck": 8877,
      "Ġwhimpered": 8878,
      "Bl": 8879,
      "emy": 8880,
      "Ġmysteries": 8881,
      "Ġ''": 8882,
      "ĠRavi": 8883,
      "Ġgates": 8884,
      "Ġthie": 8885,
      "Ġgroups": 8886,
      "Ġcurre": 8887,
      "Ġstyles": 8888,
      "Ġerupt": 8889,
      "Ġenemy": 8890,
      "ĠWilbur": 8891,
      "Ġinjured": 8892,
      "solut": 8893,
      "edic": 8894,
      "ĠWait": 8895,
      "ĠCarol": 8896,
      "isdom": 8897,
      "Ġcrickets": 8898,
      "filled": 8899,
      "Ġtant": 8900,
      "Ġshoel": 8901,
      "Jane": 8902,
      "Ġsacks": 8903,
      "ĠBirdie": 8904,
      "ĠJere": 8905,
      "ĠCon": 8906,
      "Ġchoosing": 8907,
      "Ġroo": 8908,
      "ĠFish": 8909,
      "ĠStanley": 8910,
      "ĠDay": 8911,
      "Ġtickles": 8912,
      "Ġleans": 8913,
      "ĠShare": 8914,
      "ĠBamb": 8915,
      "hings": 8916,
      "Ġtemptation": 8917,
      "Ġheels": 8918,
      "ĠOuch": 8919,
      "Ġboil": 8920,
      "Hurry": 8921,
      "ĠBoun": 8922,
      "ĠNell": 8923,
      "Ġintelligence": 8924,
      "Ġthieves": 8925,
      "ris": 8926,
      "uster": 8927,
      "ĠGw": 8928,
      "Ġstructures": 8929,
      "nces": 8930,
      "tern": 8931,
      "Ġcharm": 8932,
      "Ġbanging": 8933,
      "Ġscene": 8934,
      "that": 8935,
      "ĠSal": 8936,
      "Ġwhir": 8937,
      "Ġcomputers": 8938,
      "Ġmiller": 8939,
      "Tweet": 8940,
      "Ġweaker": 8941,
      "uess": 8942,
      "Ġspare": 8943,
      "Ġlevel": 8944,
      "Ġsnapping": 8945,
      "Ġruff": 8946,
      "Ġswimsuits": 8947,
      "Ġhundreds": 8948,
      "ĠKenny": 8949,
      "Ġfrustration": 8950,
      "Ġlumberjack": 8951,
      "Ġding": 8952,
      "Ġauntie": 8953,
      "Ġtextures": 8954,
      "Ġwatermelon": 8955,
      "Ġtantrum": 8956,
      "Ġlush": 8957,
      "ige": 8958,
      "Ġcreams": 8959,
      "Ġtownsp": 8960,
      "Benny": 8961,
      "Ġsupporting": 8962,
      "Ġtrading": 8963,
      "Ġcondition": 8964,
      "ĠBambi": 8965,
      "inct": 8966,
      "reg": 8967,
      "Ġspears": 8968,
      "Ġcamel": 8969,
      "uction": 8970,
      "Ġcentre": 8971,
      "gar": 8972,
      "Ġkeyhole": 8973,
      "ĠJodie": 8974,
      "Ġthumbs": 8975,
      "Ġbas": 8976,
      "Ġstew": 8977,
      "Ġcommunicate": 8978,
      "Jill": 8979,
      "ĠLots": 8980,
      "Ġplo": 8981,
      "ĠMumma": 8982,
      "Ġwiggling": 8983,
      "ĠJonathan": 8984,
      "ĠPeanut": 8985,
      "lyn": 8986,
      "Ġbenches": 8987,
      "First": 8988,
      "sers": 8989,
      "ĠTree": 8990,
      "Ġdart": 8991,
      "oured": 8992,
      "Ġluckiest": 8993,
      "Ġmooed": 8994,
      "icest": 8995,
      "Ġlevers": 8996,
      "Ġtops": 8997,
      "Ġtimid": 8998,
      "Ġbold": 8999,
      "ĠFa": 9000,
      "Ġwarmed": 9001,
      "Ġalongside": 9002,
      "Ġsleeps": 9003,
      "Ġharvest": 9004,
      "reled": 9005,
      "Ġtrusty": 9006,
      "Ġseasons": 9007,
      "Ġpedaling": 9008,
      "Ġprank": 9009,
      "ĠAllie": 9010,
      "Does": 9011,
      "Ġtrusts": 9012,
      "Ġexperiment": 9013,
      "Which": 9014,
      "Ġda": 9015,
      "Ġnicest": 9016,
      "Ġhissing": 9017,
      "Ġclaw": 9018,
      "Ġelectricity": 9019,
      "ĠTra": 9020,
      "Ġrebuild": 9021,
      "Ġglisten": 9022,
      "ĠCarefully": 9023,
      "ĠBer": 9024,
      "othy": 9025,
      "Ġsoftened": 9026,
      "Ġwhine": 9027,
      "Ġboiling": 9028,
      "Ġskirts": 9029,
      "Ġtownspeople": 9030,
      "ĠHug": 9031,
      "Ġquarreled": 9032,
      "Ġshinier": 9033,
      "Ġstun": 9034,
      "Ġknobs": 9035,
      "Ġfoggy": 9036,
      "Ġguarding": 9037,
      "mie": 9038,
      "Ġtoothbrush": 9039,
      "Ġdisappearing": 9040,
      "Ġkangaroos": 9041,
      "ĠJeremy": 9042,
      "Ġfootpr": 9043,
      "oto": 9044,
      "Ġastonished": 9045,
      "barrow": 9046,
      "Ġwheelbarrow": 9047,
      "Ġkneeling": 9048,
      "Ġyelp": 9049,
      "under": 9050,
      "ĠWoof": 9051,
      "Ġcompared": 9052,
      "Ġrevealing": 9053,
      "Ġfetched": 9054,
      "cell": 9055,
      "Ġwriter": 9056,
      "ĠNear": 9057,
      "Ġbaa": 9058,
      "Ġcontinuing": 9059,
      "Ġmagnifying": 9060,
      "Ġworst": 9061,
      "ĠColin": 9062,
      "ĠClare": 9063,
      "Ġcops": 9064,
      "Ġtot": 9065,
      "inny": 9066,
      "ĠWas": 9067,
      "ormation": 9068,
      "Ġconcerned": 9069,
      "Ġimproving": 9070,
      "ĠZiggy": 9071,
      "Ġreversing": 9072,
      "Ġmotorcycles": 9073,
      "Grandpa": 9074,
      "Ġlullaby": 9075,
      "uno": 9076,
      "ala": 9077,
      "Ġunless": 9078,
      "Ġcreep": 9079,
      "Ġguardian": 9080,
      "ĠGwen": 9081,
      "Ġcanv": 9082,
      "Ġcupboards": 9083,
      "guard": 9084,
      "ĠRainbow": 9085,
      "Teddy": 9086,
      "ĠHank": 9087,
      "ĠGret": 9088,
      "ĠRia": 9089,
      "ĠHurry": 9090,
      "Ġgroom": 9091,
      "ĠKyle": 9092,
      "ĠBuggy": 9093,
      "agine": 9094,
      "Ġbowing": 9095,
      "Ġcuddling": 9096,
      "solutely": 9097,
      "ial": 9098,
      "Ġmagically": 9099,
      "ĠUsing": 9100,
      "aisie": 9101,
      "\"!": 9102,
      "Ġblade": 9103,
      "Ġjourneys": 9104,
      "Ġpuppets": 9105,
      "Ġsensation": 9106,
      "cat": 9107,
      "Ġpeak": 9108,
      "Ġowns": 9109,
      "Try": 9110,
      "ĠBuster": 9111,
      "Ġwhirl": 9112,
      "Ġdrying": 9113,
      "Ġallowing": 9114,
      "ĠLibby": 9115,
      "ker": 9116,
      "Ġoldest": 9117,
      "Ġshh": 9118,
      "Ġshoots": 9119,
      "ibly": 9120,
      "Ġpoisonous": 9121,
      "Ġcracker": 9122,
      "well": 9123,
      "urity": 9124,
      "ĠCook": 9125,
      "Ġcooled": 9126,
      "Ġ--": 9127,
      "ogo": 9128,
      "Ġblooms": 9129,
      "Ġaloud": 9130,
      "Ġsleds": 9131,
      "Abracadabra": 9132,
[...]
